{"\u0100": 0, "\u0101": 1, "\u0102": 2, "\u0103": 3, "\u0104": 4, "\u0105": 5, "\u0106": 6, "\u0107": 7, "\u0108": 8, "\u0109": 9, "\u010a": 10, "\u010b": 11, "\u010c": 12, "\u010d": 13, "\u010e": 14, "\u010f": 15, "\u0110": 16, "\u0111": 17, "\u0112": 18, "\u0113": 19, "\u0114": 20, "\u0115": 21, "\u0116": 22, "\u0117": 23, "\u0118": 24, "\u0119": 25, "\u011a": 26, "\u011b": 27, "\u011c": 28, "\u011d": 29, "\u011e": 30, "\u011f": 31, "\u0120": 32, "!": 33, "\"": 34, "#": 35, "$": 36, "%": 37, "&": 38, "'": 39, "(": 40, ")": 41, "*": 42, "+": 43, ",": 44, "-": 45, ".": 46, "/": 47, "0": 48, "1": 49, "2": 50, "3": 51, "4": 52, "5": 53, "6": 54, "7": 55, "8": 56, "9": 57, ":": 58, ";": 59, "<": 60, "=": 61, ">": 62, "?": 63, "@": 64, "A": 65, "B": 66, "C": 67, "D": 68, "E": 69, "F": 70, "G": 71, "H": 72, "I": 73, "J": 74, "K": 75, "L": 76, "M": 77, "N": 78, "O": 79, "P": 80, "Q": 81, "R": 82, "S": 83, "T": 84, "U": 85, "V": 86, "W": 87, "X": 88, "Y": 89, "Z": 90, "[": 91, "\\": 92, "]": 93, "^": 94, "_": 95, "`": 96, "a": 97, "b": 98, "c": 99, "d": 100, "e": 101, "f": 102, "g": 103, "h": 104, "i": 105, "j": 106, "k": 107, "l": 108, "m": 109, "n": 110, "o": 111, "p": 112, "q": 113, "r": 114, "s": 115, "t": 116, "u": 117, "v": 118, "w": 119, "x": 120, "y": 121, "z": 122, "{": 123, "|": 124, "}": 125, "~": 126, "\u0121": 127, "\u0122": 128, "\u0123": 129, "\u0124": 130, "\u0125": 131, "\u0126": 132, "\u0127": 133, "\u0128": 134, "\u0129": 135, "\u012a": 136, "\u012b": 137, "\u012c": 138, "\u012d": 139, "\u012e": 140, "\u012f": 141, "\u0130": 142, "\u0131": 143, "\u0132": 144, "\u0133": 145, "\u0134": 146, "\u0135": 147, "\u0136": 148, "\u0137": 149, "\u0138": 150, "\u0139": 151, "\u013a": 152, "\u013b": 153, "\u013c": 154, "\u013d": 155, "\u013e": 156, "\u013f": 157, "\u0140": 158, "\u0141": 159, "\u0142": 160, "\u00a1": 161, "\u00a2": 162, "\u00a3": 163, "\u00a4": 164, "\u00a5": 165, "\u00a6": 166, "\u00a7": 167, "\u00a8": 168, "\u00a9": 169, "\u00aa": 170, "\u00ab": 171, "\u00ac": 172, "\u0143": 173, "\u00ae": 174, "\u00af": 175, "\u00b0": 176, "\u00b1": 177, "\u00b2": 178, "\u00b3": 179, "\u00b4": 180, "\u00b5": 181, "\u00b6": 182, "\u00b7": 183, "\u00b8": 184, "\u00b9": 185, "\u00ba": 186, "\u00bb": 187, "\u00bc": 188, "\u00bd": 189, "\u00be": 190, "\u00bf": 191, "\u00c0": 192, "\u00c1": 193, "\u00c2": 194, "\u00c3": 195, "\u00c4": 196, "\u00c5": 197, "\u00c6": 198, "\u00c7": 199, "\u00c8": 200, "\u00c9": 201, "\u00ca": 202, "\u00cb": 203, "\u00cc": 204, "\u00cd": 205, "\u00ce": 206, "\u00cf": 207, "\u00d0": 208, "\u00d1": 209, "\u00d2": 210, "\u00d3": 211, "\u00d4": 212, "\u00d5": 213, "\u00d6": 214, "\u00d7": 215, "\u00d8": 216, "\u00d9": 217, "\u00da": 218, "\u00db": 219, "\u00dc": 220, "\u00dd": 221, "\u00de": 222, "\u00df": 223, "\u00e0": 224, "\u00e1": 225, "\u00e2": 226, "\u00e3": 227, "\u00e4": 228, "\u00e5": 229, "\u00e6": 230, "\u00e7": 231, "\u00e8": 232, "\u00e9": 233, "\u00ea": 234, "\u00eb": 235, "\u00ec": 236, "\u00ed": 237, "\u00ee": 238, "\u00ef": 239, "\u00f0": 240, "\u00f1": 241, "\u00f2": 242, "\u00f3": 243, "\u00f4": 244, "\u00f5": 245, "\u00f6": 246, "\u00f7": 247, "\u00f8": 248, "\u00f9": 249, "\u00fa": 250, "\u00fb": 251, "\u00fc": 252, "\u00fd": 253, "\u00fe": 254, "\u00ff": 255, "<|endoftext|>": 256, "\u0120t": 257, "\u0120a": 258, "he": 259, "in": 260, "re": 261, "\u0120the": 262, "on": 263, "er": 264, "\u0120s": 265, "\u0120w": 266, "at": 267, "\u0120o": 268, "en": 269, "\u0120c": 270, "it": 271, "is": 272, "an": 273, "or": 274, "\u0120b": 275, "es": 276, "ed": 277, "\u0120f": 278, "ing": 279, "\u0120p": 280, "ou": 281, "\u0120an": 282, "al": 283, "\u0120to": 284, "ar": 285, "\u0120m": 286, "\u0120in": 287, "\u0120of": 288, "\u0120h": 289, "\u0120d": 290, "\u00e2\u0122": 291, "as": 292, "ic": 293, "\u0120and": 294, "\u0120th": 295, "le": 296, "om": 297, "ion": 298, "ll": 299, "ent": 300, "\u0120n": 301, "\u0120l": 302, "\u0120re": 303, "st": 304, "ve": 305, "\u0120e": 306, "ly": 307, "ro": 308, "\u0120be": 309, "\u0120g": 310, "id": 311, "ut": 312, "ac": 313, "ot": 314, "\u0120T": 315, "\u0120I": 316, "\u0120that": 317, "\u0120on": 318, "ay": 319, "\u0120S": 320, "\u0120is": 321, "et": 322, "im": 323, "am": 324, "ad": 325, "ow": 326, "se": 327, "ig": 328, "\u0120for": 329, "\u00e2\u0122\u013b": 330, "\u0120A": 331, "ver": 332, "ur": 333, "ct": 334, "ld": 335, "\u0120C": 336, "\u0120u": 337, "\u0120st": 338, "\u0120y": 339, "\u0120it": 340, "\u0120he": 341, "ir": 342, "ation": 343, "ith": 344, "\u0120wh": 345, "\u0120M": 346, "ce": 347, "ter": 348, "ol": 349, "\u0120we": 350, "il": 351, "\u0120with": 352, "\u0120as": 353, "\u0120B": 354, "ch": 355, "ill": 356, "nd": 357, "\u0120P": 358, "\u0120was": 359, "ers": 360, "\u0120you": 361, "ke": 362, "\u0120\u00e2\u0122": 363, "\u0120con": 364, "\u0120de": 365, "\u0120r": 366, "her": 367, "if": 368, "ate": 369, "ag": 370, "\u0120at": 371, "\u0120ha": 372, "\u0120W": 373, "\u0120se": 374, "\u0120H": 375, "ore": 376, "\u0120pro": 377, "ul": 378, "pp": 379, "ment": 380, "ri": 381, "\u0120are": 382, "\u0120D": 383, "\u01201": 384, "us": 385, "est": 386, "ist": 387, "\u0120com": 388, "and": 389, "\u0120R": 390, "op": 391, "ain": 392, "\u0120The": 393, "\u01202": 394, "igh": 395, "rom": 396, "\u0120(": 397, "ort": 398, "od": 399, "\u0120ne": 400, "\u0120F": 401, "um": 402, "un": 403, "\u0120ex": 404, "res": 405, "ab": 406, "\u00e2\u0122\u013f": 407, "\u0120not": 408, "\u0120N": 409, "\u0120v": 410, "ess": 411, "\u0120have": 412, "ity": 413, "em": 414, "ould": 415, "\u0120or": 416, "th": 417, "\u0120by": 418, "os": 419, "ant": 420, "\u0120G": 421, "ive": 422, "\u0120from": 423, "\u0120al": 424, "el": 425, "'s": 426, "oc": 427, "art": 428, "\u0120su": 429, "\u0120L": 430, "\u0120sh": 431, "\u0120this": 432, "nt": 433, "qu": 434, "ight": 435, "pe": 436, "ust": 437, "\u0120le": 438, "ies": 439, "\u0120E": 440, "end": 441, "\u0120ch": 442, "\u0120sa": 443, "out": 444, "\u0120ab": 445, "The": 446, "all": 447, "ie": 448, "ack": 449, "red": 450, "00": 451, "\u0120\u00e2\u0122\u013e": 452, "\u0120has": 453, "ally": 454, "\u0120J": 455, "\u0120pl": 456, "\u0120go": 457, "ard": 458, "iv": 459, "\u0120his": 460, "ome": 461, "ap": 462, "ost": 463, "gh": 464, "ear": 465, "\u0120O": 466, "\u0120tr": 467, "our": 468, "ast": 469, "\u0120j": 470, "ak": 471, "ud": 472, "\u0120do": 473, "\u0120they": 474, "\u0120but": 475, "\u0120wor": 476, "rou": 477, "\u0120can": 478, "ge": 479, "\u0120will": 480, "\u0120said": 481, "\u0120whe": 482, "\u0120U": 483, "\u0120k": 484, "ich": 485, "\u0120all": 486, "ok": 487, "\u0120\"": 488, "ide": 489, "\u0120who": 490, "\u0120int": 491, "ame": 492, "ans": 493, "ther": 494, "ial": 495, "\u0120out": 496, "ff": 497, "\u0120their": 498, "ong": 499, "ect": 500, "pl": 501, "ice": 502, "ure": 503, "pt": 504, "one": 505, "\u0120more": 506, "age": 507, "ions": 508, "act": 509, "ike": 510, "\u0120me": 511, "\u0120up": 512, "ous": 513, "ine": 514, "\u0120ad": 515, "\u0120about": 516, "ated": 517, "ra": 518, "ber": 519, "\u0120one": 520, "\u0120were": 521, "\u0120so": 522, "\u0120us": 523, "ime": 524, "og": 525, "\u0120K": 526, "ep": 527, "ia": 528, "\u0120had": 529, "are": 530, "ub": 531, "cc": 532, "\u0120would": 533, "\u0120cl": 534, "\u012020": 535, "\u0120im": 536, "\u0120which": 537, "ind": 538, "ue": 539, "ake": 540, "\u0120cont": 541, "iz": 542, "very": 543, "\u0120ag": 544, "\u0120te": 545, "\u0120off": 546, "\u0120comp": 547, "\u0120un": 548, "\u0120been": 549, "\u0120St": 550, "so": 551, "\u0120en": 552, "per": 553, "ign": 554, "au": 555, "\u0120Th": 556, "ary": 557, "ace": 558, "\u0120year": 559, "ip": 560, "ew": 561, "\u0120like": 562, "ere": 563, "ven": 564, "ook": 565, "\u0120inc": 566, "ays": 567, "\u0120man": 568, "\u0120pe": 569, "ry": 570, "ose": 571, "\u0120res": 572, "able": 573, "ite": 574, "\u0120per": 575, "ass": 576, "ord": 577, "\u0120sp": 578, "ire": 579, "\u0120In": 580, "\u0120other": 581, "mer": 582, "\u0120some": 583, "ile": 584, "ib": 585, "ence": 586, "ople": 587, "\u0120201": 588, "ks": 589, "ations": 590, "\u0120over": 591, "ical": 592, "\u0120there": 593, "ress": 594, "\u0120dis": 595, "ult": 596, "int": 597, "\u0120new": 598, "own": 599, "\u0120also": 600, "\u0120than": 601, "\u0120ar": 602, "\u0120bec": 603, "ru": 604, "\u0120them": 605, "ance": 606, "ount": 607, "ough": 608, "\u0120app": 609, "port": 610, "ail": 611, "\u0120part": 612, "\u0120your": 613, "\u0120when": 614, "ree": 615, "\u0120what": 616, "orm": 617, "ond": 618, "\u0120people": 619, "fter": 620, "\u0120sc": 621, "\u0120Ch": 622, "av": 623, "ase": 624, "\u0120qu": 625, "\u0120any": 626, "\u0120just": 627, "\u0120its": 628, "\u0120Y": 629, "ach": 630, "\u0120time": 631, "\u0120It": 632, "\u0120kn": 633, "\u0120her": 634, "\u01203": 635, "ens": 636, "lic": 637, "\u0120rec": 638, "reat": 639, "\u0120my": 640, "\u0120get": 641, "\u0120if": 642, "\u0120V": 643, "ian": 644, ".\u00e2\u0122\u013f": 645, "\u0120into": 646, "ound": 647, "\u0120work": 648, "\u0120tw": 649, "irst": 650, "vel": 651, "ction": 652, "\u0120no": 653, "du": 654, "ings": 655, "ory": 656, "ick": 657, "ors": 658, "\u0120our": 659, "ition": 660, "ident": 661, "ob": 662, "\u0120-": 663, "\u0120pre": 664, "ove": 665, "\u0120play": 666, "ang": 667, "ink": 668, "ause": 669, "wn": 670, "te": 671, "amp": 672, "ade": 673, "hing": 674, "ates": 675, "ark": 676, "\u0120ro": 677, "\u0120pol": 678, "\u0120she": 679, "vers": 680, "\u0120co": 681, ",\u00e2\u0122\u013f": 682, "\u0120after": 683, "ne": 684, "\u0120first": 685, "\u0120could": 686, "\u0120how": 687, "\u0120He": 688, "\u012019": 689, "ious": 690, "nder": 691, "ild": 692, "\u0120acc": 693, "\u0120him": 694, "aw": 695, "'t": 696, "ons": 697, "\u0120po": 698, "\u0120only": 699, "\u0120fe": 700, "\u0120att": 701, "ict": 702, "hed": 703, "\u0120pr": 704, "\u0120two": 705, "rit": 706, "ov": 707, "ish": 708, "\u0120comm": 709, "\u00e2\u0122\u013e": 710, "form": 711, "\u0120spe": 712, "\u0120act": 713, "we": 714, "erv": 715, "\u0120bl": 716, "ft": 717, "\u0120bet": 718, "\u0120dec": 719, ".\"": 720, "ning": 721, "\u0120back": 722, "\u0120most": 723, "ces": 724, "ood": 725, "ck": 726, "\u0120\u00e2\u0122\u0135": 727, "\u0120am": 728, "oy": 729, "\u0120did": 730, "rough": 731, "iff": 732, "ater": 733, "round": 734, "\u0120again": 735, "\u01204": 736, "ual": 737, "day": 738, "ise": 739, "\u0120under": 740, "\u0120des": 741, "\u0120want": 742, "ull": 743, "sel": 744, "\u0120cons": 745, "\u0120\u00e2\u0122\u0136": 746, "..": 747, "\u0120because": 748, "\u0120now": 749, "lud": 750, "ents": 751, "\u0120years": 752, "man": 753, "tern": 754, "ublic": 755, "ec": 756, "\u0120need": 757, "\u0120even": 758, "\u0120$": 759, "iss": 760, "\u0120inv": 761, "\u0120know": 762, "\u0120We": 763, "\u0120see": 764, "ments": 765, "ced": 766, "\u0120add": 767, ",\"": 768, "ting": 769, "old": 770, "\u0120ind": 771, "\u0120sec": 772, "fore": 773, "uch": 774, "\u0120every": 775, "urn": 776, "\u01205": 777, "\u0120supp": 778, "\u0120make": 779, "pect": 780, "\u0120Un": 781, "\u0120em": 782, "\u0120these": 783, "ock": 784, "oll": 785, "\u0120where": 786, "ject": 787, "In": 788, "ational": 789, "vern": 790, "xt": 791, "\u0120bu": 792, "\u0120look": 793, "Th": 794, "\u0120And": 795, "oss": 796, "\u0120don": 797, "\u0120ev": 798, "ump": 799, "ating": 800, "\u0120way": 801, "\u0120being": 802, "\u0120rem": 803, "\u0120right": 804, "ily": 805, "\u0120may": 806, "ng": 807, "row": 808, "lect": 809, "iew": 810, "\u0120then": 811, "\u0120many": 812, "\u0120[": 813, "\u0120diff": 814, "\u0120def": 815, "ason": 816, "\u0120rel": 817, "\u0120call": 818, "\u0120But": 819, "\u0120Tr": 820, "ont": 821, "ied": 822, "les": 823, "ased": 824, "\u0120includ": 825, "\u0120think": 826, "aking": 827, "\u0120reg": 828, ").": 829, "meric": 830, "\u0120imp": 831, "\u0120through": 832, "ath": 833, "ited": 834, "rib": 835, "\u0120sy": 836, "\u0120should": 837, "\u0120pres": 838, "\u0120say": 839, "ell": 840, "\u0120fl": 841, "uring": 842, "\u0120last": 843, "\u0120those": 844, "ower": 845, "\u0120very": 846, "ty": 847, "other": 848, "\u0120much": 849, "ities": 850, "ific": 851, "\u0120state": 852, "\u0120This": 853, "ative": 854, "\u0120show": 855, "tle": 856, "hen": 857, "\u0120br": 858, "ss": 859, "arg": 860, "\u0120well": 861, "oth": 862, "\u0120ph": 863, "\u0120Wh": 864, "\u0120count": 865, "als": 866, "und": 867, "\u0120200": 868, "\u0120does": 869, "\u0120down": 870, "\u0120own": 871, "arly": 872, "\u0120end": 873, "\u0120ass": 874, "\u0120bel": 875, "\u0120use": 876, "ics": 877, "ange": 878, "--": 879, "ts": 880, "\u0120long": 881, "\u0120Americ": 882, "ters": 883, "ince": 884, "\u0120before": 885, "omet": 886, "gr": 887, "\u0120mon": 888, "ward": 889, "\u0120govern": 890, "\u0120start": 891, "\u0120report": 892, "ible": 893, "\u0120ke": 894, "up": 895, "ues": 896, "\u0120New": 897, "\u0120fin": 898, "\u0120team": 899, "ble": 900, "\u0120made": 901, "ife": 902, "olog": 903, "ener": 904, "),": 905, "\u0120such": 906, "ren": 907, "com": 908, "oun": 909, "erson": 910, "ek": 911, "ix": 912, "\u0120sm": 913, "\u00e2\u0122\u0136": 914, "lp": 915, "ility": 916, "\u0120going": 917, "ism": 918, "ful": 919, "\u0120world": 920, "ually": 921, "\u0120stud": 922, "ists": 923, "\u0120good": 924, "\u0120ac": 925, "tain": 926, "It": 927, "\u0120sub": 928, "\u0120eff": 929, "\u0120sur": 930, "\u0120against": 931, "its": 932, "\u0120game": 933, "\u0120set": 934, "ork": 935, "\u01206": 936, "\u0120gu": 937, "\u0120point": 938, "\u0120ent": 939, "ys": 940, "000": 941, "gan": 942, "ars": 943, "li": 944, "stem": 945, "\u0120prov": 946, "\u0120still": 947, "roup": 948, "\u0120while": 949, "illion": 950, "\u0120help": 951, "\u0120lead": 952, "\u0120min": 953, "ween": 954, "ef": 955, "ax": 956, "ank": 957, "alk": 958, "imes": 959, "\u0120says": 960, "\u0120ob": 961, "ms": 962, "cy": 963, "\u0120produ": 964, "\u0120gr": 965, "\u0120inter": 966, "\u0120inst": 967, "\u0120str": 968, "cess": 969, "\u0120sim": 970, "io": 971, "self": 972, "\u0120conf": 973, "\u0120col": 974, "\u0120take": 975, "ures": 976, "arch": 977, "\u0120same": 978, "\u0120though": 979, "\u0120between": 980, "ollow": 981, "\u0120offic": 982, "ever": 983, "\u0120cr": 984, "\u0120differe": 985, "ool": 986, "uss": 987, "ution": 988, "land": 989, "\u0120disc": 990, "air": 991, "\u0120op": 992, "ah": 993, "\u0120ed": 994, "\u0120high": 995, "read": 996, "\u0120num": 997, "\u0120law": 998, "\u0120sign": 999, "way": 1000, "\u0120government": 1001, "gg": 1002, "\u0120Re": 1003, "led": 1004, "ner": 1005, "hip": 1006, "atch": 1007, "hes": 1008, "ames": 1009, "any": 1010, "\u0120ter": 1011, "\u0120somet": 1012, "cent": 1013, "velop": 1014, "ted": 1015, "We": 1016, "\u0120ref": 1017, "\u0120trans": 1018, "ten": 1019, "\u0120ins": 1020, "\u0120run": 1021, "\u0120ser": 1022, "\u0120found": 1023, "\u0120three": 1024, "ives": 1025, "ave": 1026, "\u0120mem": 1027, "\u0120around": 1028, "\u0120here": 1029, "ather": 1030, "\u0120med": 1031, "\u0120real": 1032, "\u0120used": 1033, "ouse": 1034, "\u012010": 1035, "ved": 1036, "\u0120exp": 1037, "az": 1038, "\u0120Ar": 1039, "cept": 1040, "oot": 1041, "\u0120system": 1042, "\u0120You": 1043, "ci": 1044, "\u0120really": 1045, "\u0120mod": 1046, "ving": 1047, "con": 1048, "cer": 1049, "\u0120group": 1050, "\u0120support": 1051, "\u01207": 1052, "\u0120cour": 1053, "ets": 1054, "ale": 1055, "ins": 1056, "\u0120ret": 1057, "\u0120hand": 1058, "\u0120public": 1059, "\u0120spec": 1060, "pr": 1061, "\u0120Le": 1062, "ying": 1063, "\u0120great": 1064, "\u0120car": 1065, "ense": 1066, "\u0120ext": 1067, ".[": 1068, "ton": 1069, "irect": 1070, "\u0120cur": 1071, "\u0120fam": 1072, "\u0120Com": 1073, "alth": 1074, "\u0120happ": 1075, "\u0120fact": 1076, "ph": 1077, "\u0120exper": 1078, "\u0120They": 1079, "\u0120Trump": 1080, "\u0120fr": 1081, "\u0120wom": 1082, "\u0120Is": 1083, "\u0120cap": 1084, "\u0120both": 1085, "\u0120day": 1086, "\u0120find": 1087, "\u0120Al": 1088, "ular": 1089, "\u0120read": 1090, "ines": 1091, "oh": 1092, "ices": 1093, "\u0120det": 1094, "\u0120lit": 1095, "\u0120sl": 1096, "\u0120rep": 1097, "uth": 1098, "ered": 1099, "\u0120during": 1100, "\u0120Sh": 1101, "\u0120As": 1102, "\u01200": 1103, "\u0120serv": 1104, "\u0120month": 1105, "min": 1106, "the": 1107, "ision": 1108, "\u0120cre": 1109, "\u0120develop": 1110, "\u0120big": 1111, "\u01208": 1112, "\u0120person": 1113, "akes": 1114, "\u0120follow": 1115, "\u0120Cl": 1116, "\u0120iss": 1117, "ex": 1118, "\u0120told": 1119, "\u0120since": 1120, "ared": 1121, "med": 1122, "ically": 1123, "\u0120week": 1124, "ages": 1125, "ivers": 1126, "\u0120war": 1127, "\u0120few": 1128, "orth": 1129, "ording": 1130, "\u0120cent": 1131, "\u0120leg": 1132, "aj": 1133, "get": 1134, "\u0120polit": 1135, "ves": 1136, "ash": 1137, "\u0120expl": 1138, "\u0120lot": 1139, "ric": 1140, "\u0120Se": 1141, "\u0120belie": 1142, "\u0120gener": 1143, "\u0120too": 1144, "\u01209": 1145, "der": 1146, "ata": 1147, "rent": 1148, "\u0120opp": 1149, "Wh": 1150, "\u0120requ": 1151, "\u0120contin": 1152, "\u0120prot": 1153, "iet": 1154, "bers": 1155, "anc": 1156, "\u0120fil": 1157, "ention": 1158, "ness": 1159, "\u0120cle": 1160, "\u0120resp": 1161, "\u0120put": 1162, "ized": 1163, "\u0120If": 1164, "\u0120another": 1165, "20": 1166, "chool": 1167, "\u0120inf": 1168, "\u0120something": 1169, "\u0120De": 1170, "\u0120different": 1171, "\u0120cor": 1172, "\u0120loc": 1173, "ute": 1174, "\u0120invest": 1175, "\u0120soc": 1176, "\u0120power": 1177, "\u0120che": 1178, "uc": 1179, "\u0120'": 1180, "\u0120pass": 1181, "\u0120commun": 1182, "\u0120life": 1183, "\u0120Fr": 1184, "\u0120plan": 1185, "ody": 1186, "\u0120rele": 1187, "ience": 1188, "\u0120head": 1189, "\u0120things": 1190, "ned": 1191, "\u0120far": 1192, "\u0120art": 1193, "\u0120poss": 1194, "\u0120met": 1195, "thing": 1196, "ox": 1197, "erest": 1198, "\u0120camp": 1199, "ross": 1200, "arge": 1201, "\u0120vot": 1202, "ier": 1203, "This": 1204, "view": 1205, "\u0120child": 1206, "ants": 1207, "\u0120ask": 1208, "\u0120.": 1209, "\u0120might": 1210, "\u0120each": 1211, "ize": 1212, "iness": 1213, "\u0120dep": 1214, "\u0120never": 1215, "\u0120next": 1216, "ik": 1217, "ield": 1218, "\u0120second": 1219, "\u0120mark": 1220, "tt": 1221, "\u0120quest": 1222, "\u0120bus": 1223, "\u0120adv": 1224, "\u0120An": 1225, "\u0120dem": 1226, "\u0120For": 1227, "\u0120come": 1228, "\u0120got": 1229, "\u0120\u00e2\u0122\u013a": 1230, "\u0120open": 1231, "\u0120best": 1232, "ient": 1233, "ital": 1234, "\u0120allow": 1235, "\u0120That": 1236, "rat": 1237, "\u0120seem": 1238, "\u0120post": 1239, "ple": 1240, "nce": 1241, "\u0120feel": 1242, "\u0120Pro": 1243, "\u0120US": 1244, "ug": 1245, "\u0120pri": 1246, "gram": 1247, "\u0120percent": 1248, "cl": 1249, "\u0120home": 1250, "\u0120dist": 1251, "\u0120direct": 1252, "ired": 1253, "\u0120incre": 1254, "\u0120contro": 1255, "\u0120Rep": 1256, "son": 1257, "orn": 1258, "less": 1259, "osed": 1260, "\u0120result": 1261, "\u0120hard": 1262, "\u0120care": 1263, "ately": 1264, "\u0120million": 1265, "chn": 1266, "\u0120comple": 1267, "\u0120place": 1268, "\u0120without": 1269, "\u0120inform": 1270, "\u0120including": 1271, "\u0120import": 1272, "\u0120av": 1273, "conom": 1274, "\u0120hum": 1275, "\u0120ide": 1276, "\u0120proble": 1277, "\u0120build": 1278, "\u0120top": 1279, "ama": 1280, "\u0120number": 1281, "\u0120country": 1282, "gy": 1283, "oney": 1284, "aim": 1285, "\u0120Bl": 1286, "ret": 1287, "ral": 1288, "ably": 1289, "uro": 1290, "\u0120stand": 1291, "\u0120gl": 1292, "\u0120el": 1293, "riend": 1294, "\u0120four": 1295, "ished": 1296, "ways": 1297, "\u0120partic": 1298, "\u0120better": 1299, "co": 1300, "\u0120tri": 1301, "But": 1302, "\u0120recent": 1303, "\u0120interest": 1304, "\u0120mov": 1305, "\u0120let": 1306, "ration": 1307, "\u0120season": 1308, "\u0120less": 1309, "ead": 1310, "\u0120turn": 1311, "\u0120little": 1312, "\u0120beh": 1313, "\u0120mil": 1314, "\u0120appro": 1315, "ract": 1316, "line": 1317, "\u0120bro": 1318, "ling": 1319, "ised": 1320, "\u0120called": 1321, "app": 1322, "10": 1323, "\u0120case": 1324, "\u0120dr": 1325, "\u0120Ind": 1326, "\u0120rest": 1327, "\u0120left": 1328, "\u0120pop": 1329, "\u0120ann": 1330, "\u0120Z": 1331, "ency": 1332, "ode": 1333, "\u0120move": 1334, "ina": 1335, "\u0120attack": 1336, "\u0120There": 1337, "\u0120keep": 1338, "\u0120full": 1339, "ering": 1340, "\u0120didn": 1341, "be": 1342, "\u0120fun": 1343, "\u0120main": 1344, "ajor": 1345, "__": 1346, "\u0120effect": 1347, "inal": 1348, "me": 1349, "leg": 1350, "\u0120prev": 1351, "\u0120program": 1352, "\u0120using": 1353, "\u0120test": 1354, "\u0120pay": 1355, "to": 1356, "ature": 1357, "\u0120ear": 1358, "\u0120val": 1359, "\u0120police": 1360, "\u0120writ": 1361, "\u0120form": 1362, "\u0120econom": 1363, "\u0120data": 1364, "\u0120news": 1365, "\u0120pos": 1366, "\u0120win": 1367, "\u0120American": 1368, "\u0120level": 1369, "\u0120sit": 1370, "\u0120char": 1371, "ains": 1372, "iving": 1373, "uck": 1374, "\u0120small": 1375, "ined": 1376, "ready": 1377, "He": 1378, "\u0120school": 1379, "\u0120list": 1380, "ology": 1381, "rap": 1382, "mit": 1383, "ided": 1384, "ploy": 1385, "'re": 1386, "ger": 1387, "\u0120eas": 1388, "\u0120process": 1389, "ird": 1390, "\u0120change": 1391, "\u0120women": 1392, "\u0120current": 1393, "\u0120rece": 1394, "\u0120prom": 1395, "\u0120hist": 1396, "\u0120dri": 1397, "\u0120=": 1398, "ians": 1399, "reen": 1400, "\u0120president": 1401, "\u0120company": 1402, "\u0120So": 1403, "used": 1404, "\u0120mat": 1405, "ruct": 1406, "\u0120already": 1407, "ohn": 1408, "\u0120United": 1409, "wit": 1410, "\u0120ty": 1411, "\u0120why": 1412, "\u0120bre": 1413, "\u0120unt": 1414, "\u0120money": 1415, "\u0120sol": 1416, "\u0120always": 1417, "\u0120later": 1418, "\u0120expect": 1419, "\u0120techn": 1420, "\u0120business": 1421, "\u0120How": 1422, "\u0120official": 1423, "ron": 1424, "\u0120Q": 1425, "\u0120Ob": 1426, "stand": 1427, "iversity": 1428, "\u0120bo": 1429, "\u0120book": 1430, "\u0120Ph": 1431, "aign": 1432, "\u0120thing": 1433, "\u0120class": 1434, "\u0120project": 1435, "ases": 1436, "\u0120claim": 1437, "\u0120job": 1438, "\u0120information": 1439, "\u0120organ": 1440, "aff": 1441, "\u0120She": 1442, "ards": 1443, "\u0120talk": 1444, "\u0120Be": 1445, "\u0120design": 1446, "\u0120story": 1447, "\u0120chang": 1448, "\u0120major": 1449, "\u0120able": 1450, "\u0120prof": 1451, "\u0120--": 1452, "...": 1453, "lection": 1454, "iven": 1455, "ertain": 1456, "\u0120rese": 1457, "\u0120health": 1458, "\u0120vis": 1459, "\u0120past": 1460, "urs": 1461, "\u0120free": 1462, "here": 1463, "outh": 1464, "\u0120Ad": 1465, "\u0120oper": 1466, "ption": 1467, "\u0120away": 1468, "ior": 1469, "\u0120Can": 1470, "\u0120must": 1471, "\u0120city": 1472, "ample": 1473, "rist": 1474, "sc": 1475, "ural": 1476, "\u0120happen": 1477, "uthor": 1478, "\u012018": 1479, "\u0120important": 1480, "acy": 1481, "urity": 1482, "\u0120kill": 1483, "\u0120sk": 1484, "\u0120est": 1485, "ured": 1486, "\u0120old": 1487, "\u0120pat": 1488, "ury": 1489, "ending": 1490, "\u0120doesn": 1491, "ission": 1492, "\u0120least": 1493, "\u0120grow": 1494, "\u0120edit": 1495, "\u0120var": 1496, "ained": 1497, "St": 1498, "\u0120cost": 1499, "\u0120Go": 1500, "ney": 1501, "ider": 1502, "ides": 1503, "els": 1504, "\u0120days": 1505, "\u0120tell": 1506, "\u0120hop": 1507, "\u0120stre": 1508, "\u0120campaign": 1509, "side": 1510, "\u012012": 1511, "\u0120men": 1512, "\u0120came": 1513, "\u0120aff": 1514, "\u0120const": 1515, "resident": 1516, "\u0120enough": 1517, "\u0120view": 1518, "ccess": 1519, "\u0120kind": 1520, "\u0120Mar": 1521, "oad": 1522, "\u0120Sp": 1523, "ern": 1524, "\u0120making": 1525, "\u0120large": 1526, "\u0120record": 1527, "50": 1528, "ush": 1529, "\u0120friend": 1530, "\u0120mar": 1531, "\u0120family": 1532, "\u00e2\u0122\u00a6": 1533, "ley": 1534, "\u0120elect": 1535, "eral": 1536, "\u0120polic": 1537, "\u0120tax": 1538, "ising": 1539, "by": 1540, "pped": 1541, "ality": 1542, "ator": 1543, "ified": 1544, "As": 1545, "ived": 1546, "arent": 1547, "ror": 1548, "\u0120until": 1549, "ional": 1550, "\u0120political": 1551, "\u0120vide": 1552, "\u0120deal": 1553, "ee": 1554, "ries": 1555, "alf": 1556, "augh": 1557, "\u0120ve": 1558, "\u0120working": 1559, "ued": 1560, "\u0120Republic": 1561, "\u0120took": 1562, "\u0120deb": 1563, "bs": 1564, "If": 1565, "ister": 1566, "\u0120line": 1567, "\u0120John": 1568, "aining": 1569, "\u0120air": 1570, "----": 1571, "\u0120es": 1572, "\u0120intern": 1573, "\u0120fore": 1574, "iol": 1575, "ane": 1576, "ocrat": 1577, "\u0120become": 1578, "\u0120actually": 1579, "aps": 1580, "ony": 1581, "\u0120mean": 1582, "work": 1583, "\u0120fund": 1584, "\u0120Sc": 1585, "ware": 1586, "19": 1587, "ember": 1588, "\u0120Pl": 1589, "\u0120former": 1590, "\u0120often": 1591, "\u0120Euro": 1592, "ott": 1593, "ann": 1594, "\u0120won": 1595, "\u0120give": 1596, "oint": 1597, "\u0120according": 1598, "\u0120ever": 1599, "most": 1600, "eng": 1601, "year": 1602, "wh": 1603, "aring": 1604, "\u0120games": 1605, "ison": 1606, "\u0120human": 1607, "\u0120bas": 1608, "\u0120word": 1609, "ization": 1610, "\u0120return": 1611, "\u0120times": 1612, "\u0120order": 1613, "\u0120Russ": 1614, "\u0120bit": 1615, "\u0120Dem": 1616, "\u0120name": 1617, "11": 1618, "gin": 1619, "\u0120sever": 1620, "\u0120All": 1621, "\u0120dev": 1622, "icle": 1623, "uture": 1624, "for": 1625, "ither": 1626, "iqu": 1627, "\u0120par": 1628, "\u0120199": 1629, "\u0120Mc": 1630, "\u0120wr": 1631, "\u0120Con": 1632, "raft": 1633, "\u0120sing": 1634, "\u0120perform": 1635, "\u0120Sy": 1636, "idd": 1637, "\u0120market": 1638, "\u0120fac": 1639, "\u0120charac": 1640, "There": 1641, "\u0120Or": 1642, "\u0120At": 1643, "\u0120May": 1644, "\u0120ra": 1645, "\u0120doing": 1646, "\u0120appear": 1647, "ER": 1648, "ched": 1649, "\u0120players": 1650, "\u0120la": 1651, "\u0120night": 1652, "\u0120lear": 1653, "aken": 1654, "rop": 1655, "ats": 1656, "mber": 1657, "\u0120today": 1658, "\u0120early": 1659, "\u012015": 1660, "\u0120seen": 1661, "//": 1662, "\u0120having": 1663, "\u0120,": 1664, "\u0120pot": 1665, "\u0120children": 1666, "\u0120event": 1667, "\u0120media": 1668, "\u0120social": 1669, "\u0120crit": 1670, "\u0120President": 1671, "\u0120whether": 1672, "\u0120several": 1673, "\u0120control": 1674, "idence": 1675, "\u0120meet": 1676, "sh": 1677, "\u0120milit": 1678, "\u0120press": 1679, "\u0120went": 1680, "artment": 1681, "ene": 1682, "\u0120five": 1683, "\u0120young": 1684, "ories": 1685, "\u0120sure": 1686, "\u0120prop": 1687, "iously": 1688, "\u0120equ": 1689, "\u0120question": 1690, "\u0120occ": 1691, "\u0120likely": 1692, "vert": 1693, "une": 1694, "\u0120members": 1695, "br": 1696, "ands": 1697, "\u0120certain": 1698, "ium": 1699, "\u0120eng": 1700, "\u0120water": 1701, "\u0120York": 1702, "\u0120example": 1703, "ots": 1704, "\u0120Col": 1705, "\u0120side": 1706, "\u0120ant": 1707, "\u0120arg": 1708, "\u0120done": 1709, "enn": 1710, "\u0120vers": 1711, "\u0120invol": 1712, "\u0120Mr": 1713, "\u0120States": 1714, "\u0120Europe": 1715, "ended": 1716, "let": 1717, "\u0120along": 1718, "\u0120short": 1719, "\u0120success": 1720, "ential": 1721, "\u0120months": 1722, "ball": 1723, "\u0120hour": 1724, "\u012011": 1725, "\u0120sex": 1726, "iver": 1727, "ially": 1728, "And": 1729, "lf": 1730, "empt": 1731, "\u0120within": 1732, "\u0120desc": 1733, "imate": 1734, "\u0120course": 1735, "\u0120fight": 1736, "ster": 1737, "urch": 1738, "ubl": 1739, "\u0120among": 1740, "\u0120activ": 1741, "uff": 1742, "\u00e2\u0122\u0135": 1743, "ague": 1744, "\u0120once": 1745, "\u0120future": 1746, "\u0120investig": 1747, "ulation": 1748, "rew": 1749, "\u0120possible": 1750, "\u0120Obama": 1751, "\u0120cho": 1752, "nect": 1753, "\u0120understand": 1754, "iting": 1755, "\u0120concer": 1756, "\u0120On": 1757, "\u0120]": 1758, "ones": 1759, "ortun": 1760, "\u0120problem": 1761, "\u0120Br": 1762, "\u0120priv": 1763, "\u0120means": 1764, "\u0120viol": 1765, "\u0120Car": 1766, "\u0120author": 1767, "itive": 1768, "\u0120No": 1769, "ggest": 1770, "\u0120avail": 1771, "oci": 1772, "ourn": 1773, "my": 1774, "\u0120known": 1775, "\u0120product": 1776, "\u0120non": 1777, "ivid": 1778, "\u0120thought": 1779, "\u0120yet": 1780, "gress": 1781, "\u0120across": 1782, "\u0120protect": 1783, "\u0120local": 1784, "ald": 1785, "ler": 1786, "\u0120hold": 1787, "\u0120Te": 1788, "\u0120fail": 1789, "\u0120When": 1790, "\u0120State": 1791, "inc": 1792, "\u0120community": 1793, "\u0120reason": 1794, "\u0120orig": 1795, "\u0120suggest": 1796, "\u0120&": 1797, "12": 1798, "\u0120makes": 1799, "verage": 1800, "not": 1801, "por": 1802, "back": 1803, "\u01202016": 1804, "\u0120i": 1805, "book": 1806, "\u0120asked": 1807, "ederal": 1808, "orld": 1809, "\u0120reported": 1810, "You": 1811, "aged": 1812, "ensive": 1813, "\u0120given": 1814, "\u0120strong": 1815, "\u0120prob": 1816, "\u0120mus": 1817, "\u0120others": 1818, "\u0120believe": 1819, "\u0120video": 1820, "iber": 1821, "\u0120ben": 1822, "\u0120getting": 1823, "\u0120House": 1824, "ances": 1825, "\u0120announ": 1826, "\u0120light": 1827, "ored": 1828, "ober": 1829, "\u0120University": 1830, "\u012030": 1831, "\u0120Co": 1832, "itions": 1833, "\u0120ident": 1834, "iron": 1835, "\u0120sent": 1836, "\u0120cut": 1837, "\u0120lim": 1838, "\u0120ca": 1839, "\u0120Christ": 1840, "iety": 1841, "30": 1842, "urther": 1843, "\u0120sour": 1844, "\u0120creat": 1845, "\u0120cond": 1846, "\u0120X": 1847, "rest": 1848, "ams": 1849, "'ve": 1850, "\u0120net": 1851, "ashing": 1852, "\u0120bat": 1853, "ament": 1854, "\u0120national": 1855, ".,": 1856, "\u0120close": 1857, "\u0120started": 1858, "\u0120saf": 1859, "\u0120death": 1860, "aster": 1861, "\u0120available": 1862, "arm": 1863, "\u0120hig": 1864, "For": 1865, "\u0120based": 1866, "\u0120issue": 1867, "of": 1868, "\u0120indust": 1869, "\u0120Democrat": 1870, "\u0120Min": 1871, "\u0120low": 1872, "\u0120following": 1873, "resent": 1874, "\u0120account": 1875, "\u0120land": 1876, "use": 1877, "\u0120Cent": 1878, "\u0120employ": 1879, "\u0120love": 1880, "\u01202015": 1881, "\u0120#": 1882, "\u0120history": 1883, "\u0120ago": 1884, "orts": 1885, "selves": 1886, "\u0120mom": 1887, "\u0120party": 1888, "ability": 1889, "\u0120series": 1890, "eb": 1891, "\u0120comes": 1892, "\u0120trying": 1893, "uly": 1894, "utes": 1895, "\u0120Am": 1896, "\u0120almost": 1897, "gether": 1898, "ument": 1899, "\u0120together": 1900, "ination": 1901, "AT": 1902, "\u0120America": 1903, "pro": 1904, "\u0120idea": 1905, "ief": 1906, "\u0120access": 1907, "\u0120foc": 1908, "hers": 1909, "ilar": 1910, "\u0120Fl": 1911, "reed": 1912, "ails": 1913, "\u0120commit": 1914, "itional": 1915, "\u0120isn": 1916, "\u0120Sen": 1917, "\u0120clear": 1918, "\u012016": 1919, "\u0120One": 1920, "\u0120trad": 1921, "though": 1922, "ring": 1923, "\u0120What": 1924, "\u0120pract": 1925, "\u0120added": 1926, "\u0120impro": 1927, "\u0120experience": 1928, "erence": 1929, "\u0120film": 1930, "15": 1931, "\u0120half": 1932, "ustom": 1933, "ged": 1934, "\u0120hit": 1935, "af": 1936, "\u0120Bro": 1937, "witter": 1938, "rict": 1939, "\u0120anal": 1940, "inton": 1941, "ograp": 1942, "unch": 1943, "\u01202014": 1944, "\u0120rul": 1945, "ividual": 1946, "\u0120looking": 1947, "\u0120six": 1948, "\u0120live": 1949, "\u0120anything": 1950, "\u0120area": 1951, "\u0120complete": 1952, "erman": 1953, "minist": 1954, "\u0120miss": 1955, "rael": 1956, "\u0120Ex": 1957, "\u0120Comm": 1958, "\u0120fav": 1959, "\u0120ris": 1960, "ai": 1961, "nes": 1962, "\u0120present": 1963, "ote": 1964, "rug": 1965, "\u0120saying": 1966, "raw": 1967, "aid": 1968, "\u0120Canad": 1969, "\u0120vict": 1970, "IN": 1971, "cially": 1972, "\u0120bad": 1973, "ows": 1974, "uge": 1975, "\u0120taken": 1976, "ert": 1977, "\u0120entire": 1978, "oto": 1979, "\u0120Pr": 1980, "ators": 1981, "ev": 1982, "\u0120bill": 1983, "\u0120compet": 1984, "\u0120Eng": 1985, "\u0120mor": 1986, "\u0120behind": 1987, "ien": 1988, "\u0120aut": 1989, "\u0120To": 1990, "'m": 1991, "\u0120court": 1992, "play": 1993, "\u0120try": 1994, "\u0120tre": 1995, "\u0120military": 1996, "\u0120z": 1997, "\u0120near": 1998, "osp": 1999, "\u0120mult": 2000, "What": 2001, "\u0120face": 2002, "wards": 2003, "\u012014": 2004, "\u0120security": 2005, "\u0120er": 2006, "\u0120Pol": 2007, "sy": 2008, "\u0120proper": 2009, "\u0120discuss": 2010, "\u0120threat": 2011, "\u0120tot": 2012, "\u0120study": 2013, "\u0120single": 2014, "\u0120rather": 2015, "\u0120individual": 2016, "\u0120Af": 2017, "\u0120Brit": 2018, "\u0120War": 2019, "\u0120\u00c2": 2020, "ttp": 2021, "\u0120quick": 2022, "\u0120Don": 2023, "\u0120mind": 2024, "\u0120Sec": 2025, "lement": 2026, "ales": 2027, "amed": 2028, "atic": 2029, "An": 2030, "\u0120North": 2031, "aper": 2032, "\u0120publ": 2033, "\u0120policy": 2034, "\u0120mess": 2035, "ris": 2036, "par": 2037, "\u0120black": 2038, "\u0120wanted": 2039, "\u0120fall": 2040, "irc": 2041, "**": 2042, "off": 2043, "\u0120food": 2044, "\u0120sum": 2045, "\u0120someone": 2046, "lling": 2047, "ids": 2048, "On": 2049, "\u0120|": 2050, "\u0120/": 2051, "\u0120cult": 2052, "\u0120special": 2053, "\u0120comb": 2054, "\u0120key": 2055, "\u0120Man": 2056, "\u0120player": 2057, "\u0120redu": 2058, "\u0120Gr": 2059, "\u0120bring": 2060, "\u012013": 2061, "\u0120compan": 2062, "\u012017": 2063, "ply": 2064, "\u0120Dep": 2065, "\u0120attempt": 2066, "\u0120National": 2067, "\u0120taking": 2068, "\u0120Bar": 2069, "When": 2070, "ON": 2071, "ify": 2072, "olution": 2073, "\u0120:": 2074, "viron": 2075, "\u0120foot": 2076, "\u0120Cal": 2077, "://": 2078, "\u0120else": 2079, "\u0120pret": 2080, "\u0120body": 2081, "\u0120space": 2082, "elt": 2083, "rote": 2084, "over": 2085, "dd": 2086, "\u0120probably": 2087, "16": 2088, "icult": 2089, ".)": 2090, "\u0120front": 2091, "\u0120cou": 2092, "\u0120nothing": 2093, "\u0120sw": 2094, "ashington": 2095, "\u0120Im": 2096, "\u0120connect": 2097, "ches": 2098, "\u0120World": 2099, "\u0120research": 2100, "14": 2101, "ming": 2102, "\u0120Clinton": 2103, "\u0120City": 2104, "\u0120coming": 2105, "\u0120points": 2106, "\u0120Israel": 2107, "RE": 2108, "\u0120however": 2109, "\u0120describ": 2110, "go": 2111, "\u0120jo": 2112, "\u0120signific": 2113, "\u0120similar": 2114, "yn": 2115, "reme": 2116, "cing": 2117, "\u0120benef": 2118, "lier": 2119, "\u0120Aust": 2120, "\u0120decision": 2121, "\u0120either": 2122, "aces": 2123, "\u0120coun": 2124, "ault": 2125, "So": 2126, "\u0120mass": 2127, "mb": 2128, "\u0120Har": 2129, "\u0120sus": 2130, "\u0120targ": 2131, "ully": 2132, "ana": 2133, "\u0120feat": 2134, "That": 2135, "\u0120imm": 2136, "\u0120conv": 2137, "\u0120exist": 2138, "irl": 2139, "\u0120enc": 2140, "\u01202013": 2141, "\u0120rights": 2142, "\u0120service": 2143, "\u0120Su": 2144, "asing": 2145, "ung": 2146, "sw": 2147, "IS": 2148, "\u0120fire": 2149, "\u0120doc": 2150, "\u0120wrote": 2151, "\u0120further": 2152, "\u0120house": 2153, "rodu": 2154, "\u0120fig": 2155, "\u0120chall": 2156, "ww": 2157, "\u0120ban": 2158, "\u0120third": 2159, "\u0120wa": 2160, "\u0120create": 2161, "\u0120stop": 2162, "\u0120field": 2163, "now": 2164, "\u0120pick": 2165, "AN": 2166, "ape": 2167, "ively": 2168, "\u0120meas": 2169, "\u0120repl": 2170, "\u0120compl": 2171, "\u0120With": 2172, "\u0120issues": 2173, "pping": 2174, "\u0120begin": 2175, "\u0120super": 2176, "amer": 2177, "\u0120step": 2178, "ried": 2179, "ently": 2180, "\u0120whole": 2181, "\u0120relations": 2182, "\u0120seems": 2183, "\u0120)": 2184, "\u0120companies": 2185, "pecially": 2186, "\u0120due": 2187, "\u0120exec": 2188, "\u0120cand": 2189, "\u0120everything": 2190, "\u0120federal": 2191, "\u0120Gu": 2192, "\u0120states": 2193, "\u0120ey": 2194, "\u0120room": 2195, "aul": 2196, "\u0120tra": 2197, "\u0120watch": 2198, "oon": 2199, "\u0120Ge": 2200, "\u0120custom": 2201, "\u0120leaders": 2202, "13": 2203, "uation": 2204, "\u0120However": 2205, "pite": 2206, "\u0120Jan": 2207, "\u0120Washington": 2208, "Ch": 2209, "lam": 2210, "\u0120self": 2211, "\u0120role": 2212, "ran": 2213, "ilt": 2214, "\u0120sound": 2215, "\u0120lab": 2216, "att": 2217, "head": 2218, "\u0120dam": 2219, "ivil": 2220, "\u0120officials": 2221, "\u0120stri": 2222, "\u01202012": 2223, "lu": 2224, "iday": 2225, "ibility": 2226, "\u0120released": 2227, "\u0120Inst": 2228, "eal": 2229, "\u0120began": 2230, "\u0120Dav": 2231, "\u0120App": 2232, "\u0120South": 2233, "\u0120opt": 2234, "obal": 2235, "\u0120students": 2236, "\u0120treat": 2237, "\u0120final": 2238, "\u0120character": 2239, "\u0120position": 2240, "\u0120matter": 2241, "\u00c3\u00a9": 2242, "ender": 2243, "\u0120ener": 2244, "lim": 2245, "\u0120outside": 2246, "ery": 2247, "sec": 2248, "ades": 2249, "\u0120dou": 2250, "vironment": 2251, "\u0120development": 2252, "\u0120statement": 2253, "\u0120himself": 2254, "\u01202017": 2255, "\u0120above": 2256, "like": 2257, "\u0120stat": 2258, "\u0120init": 2259, "\u0120break": 2260, "\u0120100": 2261, "\u0120amount": 2262, "\u0120provide": 2263, "\u0120hours": 2264, "\u0120itself": 2265, "\u0120themselves": 2266, "\u0120office": 2267, "\u0120represent": 2268, "\u0120action": 2269, "\u0120Part": 2270, "\u0120di": 2271, "\u0120became": 2272, "\u0120198": 2273, "\u0120general": 2274, "\u0120continue": 2275, "\u0120countries": 2276, "\u0120Intern": 2277, "\u0120neg": 2278, "iod": 2279, "\u0120address": 2280, "\u012025": 2281, "\u0120gun": 2282, "aced": 2283, "ask": 2284, "\u0120true": 2285, "\u0120specific": 2286, "ograph": 2287, "umb": 2288, "arter": 2289, "reg": 2290, "\u0120larg": 2291, "\u0120significant": 2292, "lish": 2293, "\u0120simply": 2294, "\u0120Ass": 2295, "\u0120Res": 2296, "\u0120wasn": 2297, "'ll": 2298, "\u0120interview": 2299, "acebook": 2300, "ili": 2301, "\u0120ground": 2302, "\u0120rad": 2303, "oid": 2304, "ogn": 2305, "\u0120difficult": 2306, "\u0120running": 2307, "\u0120Just": 2308, "\u0120evidence": 2309, "\u0120administ": 2310, "BC": 2311, "\u0120cop": 2312, "17": 2313, "ream": 2314, "\u0120drug": 2315, "\u0120version": 2316, "ogle": 2317, "\u0120bar": 2318, "\u0120Ed": 2319, "\u0120agree": 2320, "eks": 2321, "iddle": 2322, "\u0120building": 2323, "\u0120China": 2324, "\u0120needs": 2325, "\u0120profess": 2326, "angu": 2327, "\u0120groups": 2328, "right": 2329, "\u0120typ": 2330, "\u0120respons": 2331, "\u0120common": 2332, "\u0120shows": 2333, "\u0120everyone": 2334, "\u0120dom": 2335, "\u0120dest": 2336, "\u0120needed": 2337, "\u0120ball": 2338, "\u0120woman": 2339, "\u0120German": 2340, "\u0120lat": 2341, "\u0120below": 2342, "\u0120tem": 2343, "light": 2344, "ournal": 2345, "\u0120music": 2346, "\u0120exc": 2347, "\u0120release": 2348, "ift": 2349, "\u0120inj": 2350, "\u0120pretty": 2351, "\u0120Med": 2352, "\u0120Ab": 2353, "AR": 2354, "ribut": 2355, "\u0120include": 2356, "\u0120saw": 2357, "\u0120deep": 2358, "\u0120ap": 2359, "body": 2360, "18": 2361, "\u0120played": 2362, "\u0120quite": 2363, "\u0120industry": 2364, "\u0120charg": 2365, "\u0120mag": 2366, "\u0120energy": 2367, "\u0120playing": 2368, "\u0120mot": 2369, "\u012050": 2370, "\u0120candid": 2371, "\u0120sense": 2372, "\u0120phys": 2373, "\u0120late": 2374, "\u0120alleg": 2375, "\u0120white": 2376, "\u0120His": 2377, "ival": 2378, "\u0120friends": 2379, "\u0120gen": 2380, "\u0120legal": 2381, "atur": 2382, "\u0120anim": 2383, "isc": 2384, "bo": 2385, "yle": 2386, "\u0120After": 2387, "How": 2388, "AS": 2389, "where": 2390, "\u0120abs": 2391, "lev": 2392, "\u0120instead": 2393, "\u0120red": 2394, "\u0120billion": 2395, "\u0120lost": 2396, "\u0120especially": 2397, "\u0120value": 2398, "\u0120Mus": 2399, "\u0120West": 2400, "\u0120host": 2401, "\u0120hom": 2402, "osing": 2403, "oring": 2404, "\u0120News": 2405, "time": 2406, "ager": 2407, "\u0120ple": 2408, "istic": 2409, "\u0120weeks": 2410, "epend": 2411, "\u0120Not": 2412, "ccording": 2413, "omm": 2414, "\u0120forward": 2415, "ique": 2416, "\u0120deter": 2417, "\u0120election": 2418, "\u0120recently": 2419, "\u0120jud": 2420, "\u0120track": 2421, "\u0120suff": 2422, "\u0120vote": 2423, "\u0120Twitter": 2424, "\u0120object": 2425, "irt": 2426, "lt": 2427, "medi": 2428, "\u0120period": 2429, "\u0120changes": 2430, "\u0120opportun": 2431, "\u0120White": 2432, "\u0120Oct": 2433, "\u0120lo": 2434, "\u0120longer": 2435, "arc": 2436, "oke": 2437, "eed": 2438, "\u0120ep": 2439, "\u0120pain": 2440, "\u0120soon": 2441, "\u0120site": 2442, "\u0120{": 2443, "hod": 2444, "ript": 2445, "ached": 2446, "\u0120accept": 2447, "\u0120Cong": 2448, "____": 2449, "\u0120shoot": 2450, "\u0120economic": 2451, "\u0120hope": 2452, "irm": 2453, "oe": 2454, "\u0120moment": 2455, "\u0120decl": 2456, "lege": 2457, "\u0120consum": 2458, "\u0120Will": 2459, "\u0120pie": 2460, "\u0120tit": 2461, "\u0120check": 2462, "oph": 2463, "\u0120potential": 2464, "ij": 2465, "\u0120block": 2466, "\u0120March": 2467, "ole": 2468, "\u0120wrong": 2469, "duct": 2470, "ners": 2471, "\u0120Sept": 2472, "\u0120Department": 2473, "\u0120higher": 2474, "onse": 2475, "\u0120cred": 2476, "\u0120online": 2477, "\u0120focus": 2478, "\u012024": 2479, "\u0120consider": 2480, "key": 2481, "\u0120educ": 2482, "ancial": 2483, "\u0120My": 2484, "ns": 2485, "iding": 2486, "\u0120circ": 2487, "\u0120works": 2488, "\u0120relig": 2489, "\u0120share": 2490, "\u0120parent": 2491, "cial": 2492, "\u0120held": 2493, "25": 2494, "\u0120pred": 2495, "\u0120Dr": 2496, "\u0120walk": 2497, "\u0120webs": 2498, "\u0120led": 2499, "ularly": 2500, "==": 2501, "\u0120reve": 2502, "lear": 2503, "\u0120stay": 2504, "\u0120These": 2505, "overed": 2506, "alt": 2507, "\u0120stru": 2508, "\u0120Republican": 2509, "\u0120risk": 2510, "\u0120words": 2511, "\u0120Aug": 2512, "\u0120rev": 2513, "\u0120sold": 2514, "\u0120review": 2515, "icro": 2516, "\u0120contract": 2517, "\u0120results": 2518, "\u0120services": 2519, "\u0120laws": 2520, "They": 2521, "\u0120code": 2522, "cil": 2523, "\u0120Mich": 2524, "\u0120wind": 2525, "\u0120function": 2526, "\u0120aud": 2527, "\u0120ce": 2528, "\u0120Syri": 2529, "put": 2530, "aut": 2531, "\u0120total": 2532, "fect": 2533, "\u0120article": 2534, "\u0120age": 2535, "\u0120applic": 2536, "\u0120minutes": 2537, "urd": 2538, "\u0120Me": 2539, "\u0120personal": 2540, "ilities": 2541, "\u0120anyone": 2542, "uary": 2543, "ients": 2544, "itution": 2545, "asons": 2546, "\u0120June": 2547, "Ad": 2548, "ateg": 2549, "\u0120prim": 2550, "anger": 2551, "\u0120target": 2552, "\u0120Ste": 2553, "fer": 2554, "\u0120den": 2555, "\u0120earlier": 2556, "ule": 2557, "\u0120favor": 2558, "\u0120express": 2559, "haps": 2560, "\u0120dead": 2561, "\u0120answ": 2562, "\u0120upd": 2563, "\u0120popular": 2564, "che": 2565, "\u0120comput": 2566, "\u0120vol": 2567, "pril": 2568, "\u0120necess": 2569, "ham": 2570, "\u0120hy": 2571, "\u0120rate": 2572, "ES": 2573, "aging": 2574, "\u0120technology": 2575, "apan": 2576, "\u0120respect": 2577, "\u0120Pe": 2578, "val": 2579, "\u0120environment": 2580, "\u01202011": 2581, "Ph": 2582, "\u0120received": 2583, "\u0120expected": 2584, "ude": 2585, "ends": 2586, "\u0120goal": 2587, "\u0120Par": 2588, "\u0120created": 2589, "\u0120base": 2590, "\u0120surpr": 2591, "\u0120anti": 2592, "\u0120Sm": 2593, "\u0120July": 2594, "eter": 2595, "tee": 2596, "\u0120problems": 2597, "uel": 2598, "\u0120ways": 2599, "\u0120port": 2600, "iple": 2601, "action": 2602, "\u0120private": 2603, "\u0120Do": 2604, "\u0120scient": 2605, "\u0120increase": 2606, "ray": 2607, "reet": 2608, "\u0120announced": 2609, "\u0120comment": 2610, "isl": 2611, "\u0120cannot": 2612, "\u0120easy": 2613, "Al": 2614, "\u0120shot": 2615, "\u0120Congress": 2616, "\u0120questions": 2617, "bit": 2618, "\u0120force": 2619, "aterial": 2620, "hern": 2621, "\u0120impact": 2622, "na": 2623, "\u0120et": 2624, "\u0120Mond": 2625, "ples": 2626, "\u0120pack": 2627, "\u0120+": 2628, "\u0120Facebook": 2629, "\u0120pur": 2630, "\u0120langu": 2631, "atives": 2632, "\u0120God": 2633, "\u0120En": 2634, "\u0120involved": 2635, "omb": 2636, "aving": 2637, "ills": 2638, "60": 2639, "lex": 2640, "hood": 2641, "onst": 2642, "\u0120Austral": 2643, "\u0120div": 2644, "uesday": 2645, "\u0120execut": 2646, "ctor": 2647, "\u0120model": 2648, "itiz": 2649, "\u0120sen": 2650, "\u0120speak": 2651, "\u0120staff": 2652, "\u0120exact": 2653, "\u0120civil": 2654, "ires": 2655, "\u0120nearly": 2656, "\u0120type": 2657, "ourt": 2658, "okes": 2659, "ees": 2660, "\u0120original": 2661, "\u0120cases": 2662, "\u0120content": 2663, "\u0120197": 2664, "\u0120relationship": 2665, "\u0120terror": 2666, "\u0120Google": 2667, "To": 2668, "\u0120leave": 2669, "\u0120Friday": 2670, "\u0120response": 2671, "\u0120capt": 2672, "\u0120inside": 2673, "\u0120<": 2674, "\u0120phot": 2675, "lled": 2676, "ech": 2677, "\u0120fans": 2678, "\u0120April": 2679, "rem": 2680, "\u0120Red": 2681, "\u0120international": 2682, "\u0120coll": 2683, "cast": 2684, "\u0120heart": 2685, "\u0120average": 2686, "\u0120broad": 2687, "\u0120arrest": 2688, "\u0120users": 2689, "\u0120Count": 2690, "\u0120cal": 2691, "At": 2692, "rel": 2693, "\u0120cell": 2694, "\u0120worth": 2695, "\u0120soft": 2696, "\u0120ur": 2697, "\u0120living": 2698, "\u0120Em": 2699, "bor": 2700, "\u0120nation": 2701, "ips": 2702, "ky": 2703, "\u0120killed": 2704, "\u0120reports": 2705, "\u01202010": 2706, "\u00e3\u0123": 2707, "ging": 2708, "\u0120becom": 2709, "\u0120source": 2710, "\u0120Monday": 2711, "\u0120Tuesday": 2712, "\u0120subject": 2713, "\u0120worked": 2714, "atural": 2715, "ests": 2716, "\u0120estab": 2717, "\u0120immedi": 2718, "EN": 2719, "\u0120respond": 2720, "\u0120global": 2721, "\u0120associ": 2722, "joy": 2723, "ellig": 2724, "\u0120club": 2725, "ops": 2726, "\u0120Americans": 2727, "ael": 2728, "\u0120obs": 2729, "ites": 2730, "\u0120Per": 2731, "\u0120Pal": 2732, "\u0120chance": 2733, "\u0120oil": 2734, "\u0120Act": 2735, "\u0120ability": 2736, "\u0120Ne": 2737, "\u0120takes": 2738, "rought": 2739, "\u0120weap": 2740, "hel": 2741, "\u0120price": 2742, "\u0120Japan": 2743, "ological": 2744, "\u0120director": 2745, "izing": 2746, "\u0120workers": 2747, "\u0120terms": 2748, "\u0120road": 2749, "mon": 2750, "\u0120published": 2751, "\u0120del": 2752, "\u0120While": 2753, "\u0120tou": 2754, "\u0120phone": 2755, "rain": 2756, "\u0120collect": 2757, "\u0120financial": 2758, "\u0120mid": 2759, "osition": 2760, "\u0120decided": 2761, "ises": 2762, "OR": 2763, "\u0120Russia": 2764, "\u0120Some": 2765, "\u0120Wed": 2766, "\u0120mother": 2767, "\u0120squ": 2768, "\u0120lack": 2769, "\u0120defin": 2770, "ovember": 2771, "\u012040": 2772, "\u0120girl": 2773, "\u0120store": 2774, "\u0120gave": 2775, "\u0120buy": 2776, "\u0120influ": 2777, "\u0120Calif": 2778, "\u0120log": 2779, "\u0120happened": 2780, "ino": 2781, "\u0120require": 2782, "\u0120Now": 2783, "\u0120emer": 2784, "\u0120fem": 2785, "\".": 2786, "\u0120capital": 2787, "clus": 2788, "\u0120foreign": 2789, "\u0120currently": 2790, "\u0120Off": 2791, "based": 2792, "\u0120San": 2793, "\u0120goes": 2794, "\u0120By": 2795, "oved": 2796, "\u0120Geor": 2797, "vertise": 2798, "\u0120situation": 2799, "\u0120indic": 2800, "\u0120offer": 2801, "\u0120whose": 2802, "\u0120@": 2803, "\u0120tal": 2804, "\u0120material": 2805, "\u0120lives": 2806, "unt": 2807, "\u0120affect": 2808, "rown": 2809, "ought": 2810, "\u0120plans": 2811, "nesday": 2812, "\u0120arri": 2813, "\u0120member": 2814, "\u0120pict": 2815, "ursday": 2816, "\u0120Feb": 2817, "\u0120particip": 2818, "ruction": 2819, "\u0120recogn": 2820, "\u0120turned": 2821, "\u0120method": 2822, "\u0120events": 2823, "\u0120January": 2824, "\u0120Hill": 2825, "\u0120network": 2826, "One": 2827, "\u0120teams": 2828, "\u0120Sund": 2829, "\u0120bank": 2830, "\u0120meeting": 2831, "40": 2832, "rect": 2833, "\u0120norm": 2834, "\u0120introdu": 2835, "\u0120simple": 2836, "fully": 2837, "\u0120Islam": 2838, "\u0120ill": 2839, "\u0120Ag": 2840, "\u0120huge": 2841, "\u0120September": 2842, "oud": 2843, "\u0120regard": 2844, "\u0120areas": 2845, "\u0120cy": 2846, "order": 2847, "\u0120Cor": 2848, "ese": 2849, "\u0120TV": 2850, "\u0120couple": 2851, "\u0120approach": 2852, "\u0120career": 2853, "aur": 2854, "\u0120Afric": 2855, "\u0120Gl": 2856, "load": 2857, "\",": 2858, "\u0120deli": 2859, "\u0120race": 2860, "lin": 2861, "\u0120performance": 2862, "\u0120page": 2863, "ety": 2864, "apt": 2865, "\u0120November": 2866, "\u0120tool": 2867, "\u0120David": 2868, "\u0120felt": 2869, "\u0120quickly": 2870, "\u0120mis": 2871, "\u0120numbers": 2872, "oor": 2873, "\u0120email": 2874, "\u012021": 2875, "aily": 2876, "\u0120ord": 2877, "\u0120El": 2878, "istan": 2879, "\u0120administration": 2880, "\u0120hon": 2881, "\u0120Wednesday": 2882, "\u0120victim": 2883, "\u0120Paul": 2884, "\u0120via": 2885, "\u0120improve": 2886, "\u0120engine": 2887, "chie": 2888, "--------": 2889, "\u0120fre": 2890, "\u0120pull": 2891, "\u0120Ang": 2892, "\u0120round": 2893, "bl": 2894, "\u0120built": 2895, "\u012022": 2896, "\u0120pers": 2897, "\u0120European": 2898, "\u0120dig": 2899, "ened": 2900, "\u0120Thursday": 2901, "\u0120father": 2902, "ornia": 2903, "\u0120loss": 2904, "avy": 2905, "\u0120thous": 2906, "\u00c2\u0143": 2907, "\u0120http": 2908, "ructure": 2909, "\u0120production": 2910, "\u0120boy": 2911, "ume": 2912, "\u0120heard": 2913, "down": 2914, "Sh": 2915, "\u0120economy": 2916, "\u00e2\u0122\u013f.": 2917, "\u0120enjoy": 2918, "\u0120August": 2919, "\u0120trade": 2920, "\u0120Sch": 2921, "face": 2922, "\u0120website": 2923, "iment": 2924, "\u0120secret": 2925, "\u0120cover": 2926, "\u0120reveal": 2927, "\u0120wide": 2928, "\u0120board": 2929, "\u0120match": 2930, "\u0120Court": 2931, "AL": 2932, "\u0120allowed": 2933, "\u0120hands": 2934, "\u0120spent": 2935, "\u0120travel": 2936, "\u0120lower": 2937, "\u0120repe": 2938, "atory": 2939, "\u0120poll": 2940, "\u0120ste": 2941, "\u0120included": 2942, "cember": 2943, "\u0120October": 2944, "\u0120neigh": 2945, "\u0120legisl": 2946, "orters": 2947, "uses": 2948, "\u0120behav": 2949, "iction": 2950, "\u0120knew": 2951, "\u0120text": 2952, "\u0120wants": 2953, "\u0120town": 2954, "ights": 2955, "\u0120British": 2956, "\u0120separ": 2957, "ences": 2958, "estern": 2959, "\u0120visit": 2960, "\u0120Canada": 2961, "anks": 2962, "ctions": 2963, "With": 2964, "\u0120perfect": 2965, "\u0120gets": 2966, "ze": 2967, "ession": 2968, "\u0120movement": 2969, "ishing": 2970, "ground": 2971, "agement": 2972, "\u0120tried": 2973, "\u0120cause": 2974, "?\u00e2\u0122\u013f": 2975, "gest": 2976, "\u0120}": 2977, "\u0120forces": 2978, "\u0120Sunday": 2979, "\u0120ens": 2980, "After": 2981, "force": 2982, "ceed": 2983, "\u0120attention": 2984, "\u0120particular": 2985, "\u0120bi": 2986, "][": 2987, "ening": 2988, "\u0120veh": 2989, "\u0120bud": 2990, "\u0120fear": 2991, "\u0120population": 2992, "\u0120various": 2993, "\u0120UK": 2994, "\u0120reach": 2995, "ma": 2996, "\u0120looks": 2997, "\u012023": 2998, "\u0120California": 2999, "\u0120brought": 3000, "\u0120vo": 3001, "\u0120Kore": 3002, "\u0120link": 3003, "ibly": 3004, ");": 3005, "urning": 3006, "arily": 3007, "\u0120IS": 3008, "200": 3009, "\u0120previous": 3010, "ED": 3011, "\u0120mention": 3012, "\u0120Russian": 3013, "\u0120morning": 3014, "\u0120Qu": 3015, "cle": 3016, "idered": 3017, "eg": 3018, "'d": 3019, "\u0120fair": 3020, "\u0120growth": 3021, "aker": 3022, "\u0120Sw": 3023, "undred": 3024, "99": 3025, "sequ": 3026, "yond": 3027, "\u0120progress": 3028, "\u0120fell": 3029, "raz": 3030, "alled": 3031, "\u0120song": 3032, "iam": 3033, "\u0120Cont": 3034, "AC": 3035, "\u0120training": 3036, "field": 3037, "hold": 3038, "uk": 3039, "\u0120size": 3040, "\u0120Black": 3041, "cies": 3042, "\u0120December": 3043, "idents": 3044, "\u0120contact": 3045, "ledge": 3046, "\u0120Her": 3047, "\u0120demand": 3048, "While": 3049, "\u0120image": 3050, "\u0120hor": 3051, "\u0120rac": 3052, "\u0120hot": 3053, "ification": 3054, "OS": 3055, "\u0120leader": 3056, "set": 3057, "ecause": 3058, "\u0120rules": 3059, "\u0120prep": 3060, "\u0120liber": 3061, "\u0120search": 3062, "\u0120ess": 3063, "\u0120Post": 3064, "\u0120citiz": 3065, "\u0120upon": 3066, "\u0120strugg": 3067, "\u0120Street": 3068, "\u0120latest": 3069, "come": 3070, "\u0120independ": 3071, "US": 3072, "uments": 3073, "inks": 3074, "arth": 3075, "\u0120features": 3076, "\u0120coach": 3077, "ondon": 3078, "\u0120Park": 3079, "iant": 3080, "\u0120fast": 3081, "Tr": 3082, "oo": 3083, "sych": 3084, "\u0120talking": 3085, "\u0120Jew": 3086, "omp": 3087, "\u0120addition": 3088, "ges": 3089, "\u0120star": 3090, "\u0120wond": 3091, "\u0120Senate": 3092, "IT": 3093, "\u0120Pat": 3094, "\u0120speed": 3095, "\u0120exam": 3096, "\u0120considered": 3097, "raq": 3098, "icles": 3099, "aries": 3100, "\u0120reb": 3101, "bed": 3102, "\u0120levels": 3103, "eth": 3104, "\u0120Times": 3105, "\u0120County": 3106, "elligence": 3107, "\u0120slow": 3108, "\u0120investigation": 3109, "ps": 3110, "ille": 3111, "\u0120conduct": 3112, "aph": 3113, "\u0120Party": 3114, "22": 3115, "\u0120King": 3116, "\u0120medical": 3117, "\u0120mach": 3118, "imately": 3119, "vent": 3120, "\u0120achie": 3121, "\u0120language": 3122, "aturday": 3123, "\u0120card": 3124, "\u0120sn": 3125, "unk": 3126, "\u0120sort": 3127, "\u0120critic": 3128, "ope": 3129, "\u0120Tex": 3130, "\u0120Center": 3131, "\u0120pen": 3132, "\u0120und": 3133, "wo": 3134, "\u0120India": 3135, "\u0120paper": 3136, "ysis": 3137, "IC": 3138, "\u01202008": 3139, "pir": 3140, "\u0120conserv": 3141, "\u0120parents": 3142, "imin": 3143, "\u0120sexual": 3144, "\u0120systems": 3145, "\u0120prior": 3146, "ha": 3147, "uit": 3148, "asc": 3149, "\u0120doll": 3150, "\u0120written": 3151, "uf": 3152, "\u0120box": 3153, "\u0120spokes": 3154, "igr": 3155, "\u0120seek": 3156, "\u0120sens": 3157, "het": 3158, "\u0120document": 3159, "idge": 3160, "eared": 3161, "\u0120increasing": 3162, "\u0120hear": 3163, "ani": 3164, "atform": 3165, "\u0120draw": 3166, "\u0120seven": 3167, "\u0120son": 3168, "\u0120Muslim": 3169, "\u0120effort": 3170, "ruary": 3171, "\u0120jobs": 3172, "\u0120Iran": 3173, "\u0120extreme": 3174, "\u0120prevent": 3175, "\u0120learn": 3176, "ining": 3177, "\u0120serious": 3178, "\u0120regul": 3179, "rast": 3180, "\u0120inn": 3181, "\u0120range": 3182, "\u0120...": 3183, "room": 3184, "\u0120violence": 3185, "\u0120eight": 3186, "\u0120Mark": 3187, "80": 3188, "ources": 3189, "\u0120Iraq": 3190, "itch": 3191, "OP": 3192, "\u0120surve": 3193, "\u0120completely": 3194, "\u0120conc": 3195, "\u01202009": 3196, "\u0120message": 3197, "ico": 3198, "tr": 3199, "\u0120\u00e2": 3200, "She": 3201, "\u0120obv": 3202, "\u0120interesting": 3203, "reedom": 3204, "\u0120screen": 3205, "abor": 3206, "\u0120opportunity": 3207, "eff": 3208, "\u0120climate": 3209, "24": 3210, "ext": 3211, "\u0120majority": 3212, "\u0120Ke": 3213, "anced": 3214, "\u0120particularly": 3215, "\u0120doub": 3216, "\u0120journal": 3217, "\u0120Rom": 3218, "\u0120despite": 3219, "\u0120claims": 3220, "\u0120Char": 3221, "\u0120answer": 3222, "\u0120society": 3223, "\u0120London": 3224, "\u0120defense": 3225, "\u0120carry": 3226, "entially": 3227, "aming": 3228, "\u0120guy": 3229, "\u0120extra": 3230, "ension": 3231, "mp": 3232, "\u0120Donald": 3233, "isions": 3234, "\u0120attacks": 3235, "\u0120required": 3236, "erve": 3237, "rench": 3238, "illed": 3239, "\u0120biggest": 3240, "vertisement": 3241, "\u0120East": 3242, "\u0120exactly": 3243, "iers": 3244, "\u0120paid": 3245, "\u0120More": 3246, "ibr": 3247, "\u0120experien": 3248, "\u0120aren": 3249, "lying": 3250, "uclear": 3251, "inese": 3252, "\u0120modern": 3253, "\u0120remain": 3254, "\u0120quarter": 3255, "\u0120officers": 3256, "ett": 3257, "\u0120hundred": 3258, "\u0120cross": 3259, "\u0120except": 3260, "utions": 3261, "ari": 3262, "\u0120table": 3263, "\u0120practice": 3264, "\u0120natural": 3265, "inally": 3266, "\u0120middle": 3267, "erc": 3268, "\u012027": 3269, "\u0120certainly": 3270, "\u0120dro": 3271, "add": 3272, "oses": 3273, "\u0120Saturday": 3274, "\u0120stories": 3275, "\u0120Net": 3276, "\u0120histor": 3277, "\u0120gas": 3278, "\u0120products": 3279, "\u0120surv": 3280, "\u0120looked": 3281, "\u0120sometimes": 3282, "nces": 3283, "\u0120stuff": 3284, "\u0120rout": 3285, "\u0120science": 3286, "\u0120finally": 3287, "\u0120user": 3288, "AM": 3289, "\u0120summer": 3290, "\u0120movie": 3291, "\u0120blood": 3292, "ospital": 3293, "aves": 3294, "\u0120communic": 3295, "\u0120aw": 3296, "ously": 3297, "\u0120lay": 3298, "\u0120changed": 3299, "\u0120ones": 3300, "\u0120leading": 3301, "\u0120described": 3302, "\u0120Sand": 3303, "\u0120imag": 3304, "\u0120term": 3305, "\u0120February": 3306, "fl": 3307, "\u0120prison": 3308, "\u0120convers": 3309, "ny": 3310, "\u0120details": 3311, "icks": 3312, "\u0120starting": 3313, "\u0120Spe": 3314, "\u0120quality": 3315, "\u0120occur": 3316, "\u0120pan": 3317, "hib": 3318, "\u0120showed": 3319, "\u0120named": 3320, "\u0120giving": 3321, "\u0120ult": 3322, "\u0120remains": 3323, "\u0120McC": 3324, "uing": 3325, "\u0120region": 3326, "pper": 3327, "\u0120provided": 3328, "\u0120costs": 3329, "akers": 3330, "\u0120Soc": 3331, "arr": 3332, "\u0120damage": 3333, "\u0120mob": 3334, "\u0120danger": 3335, "\u0120fit": 3336, "aught": 3337, "\u0120TH": 3338, "\u0120Tur": 3339, "\u0120chief": 3340, "\u0120poor": 3341, "\u0120path": 3342, "\u0120Mor": 3343, "ida": 3344, "\u0120education": 3345, "\u0120multiple": 3346, "\u0120continued": 3347, "enge": 3348, "\u0120Int": 3349, "\u0120growing": 3350, "No": 3351, "\u0120demonst": 3352, "\u0120Che": 3353, "\u0120*": 3354, "\u0120parts": 3355, "yl": 3356, "\u012026": 3357, "\u0120writing": 3358, "\u0120comments": 3359, "\u012028": 3360, "\u0120ment": 3361, "\u0120maintain": 3362, "\u0120safe": 3363, "\u0120assist": 3364, "\u0120thinking": 3365, "\u0120Des": 3366, "inary": 3367, "\u0120Republicans": 3368, "\u0120Even": 3369, "\u0120purp": 3370, "\u0120request": 3371, "\u0120write": 3372, "\u0120fix": 3373, "\u0120item": 3374, "\u0120purch": 3375, "ables": 3376, "\u0120died": 3377, "\u0120Democratic": 3378, "\u0120Coun": 3379, "FL": 3380, "ago": 3381, "\u0120ready": 3382, "coin": 3383, "\u0120wouldn": 3384, "\u0120implement": 3385, "23": 3386, "\u0120increased": 3387, "\u0120culture": 3388, "fort": 3389, "\u0120efforts": 3390, "\u0120voters": 3391, "ux": 3392, "pre": 3393, "\u0120camer": 3394, "\u0120mill": 3395, "aly": 3396, "....": 3397, "oper": 3398, "\u0120reading": 3399, "mitted": 3400, "iminal": 3401, "\u0120file": 3402, "\u0120usually": 3403, "\u0120calls": 3404, "\u0120spot": 3405, "\u0120effects": 3406, "Im": 3407, "\u0120Gener": 3408, "zz": 3409, "\u0120perhaps": 3410, "ban": 3411, "\u0120alone": 3412, "arian": 3413, "iles": 3414, "\u0120First": 3415, "\u0120although": 3416, "\u0120towards": 3417, "\u0120League": 3418, "de": 3419, "\u0120consist": 3420, "\u0120Bill": 3421, "\u0120Texas": 3422, "\u0120select": 3423, "\u0120guys": 3424, "\u0120standard": 3425, "\u0120Michael": 3426, "\u0120subst": 3427, "\u0120cele": 3428, "\u0120beyond": 3429, "\u0120directly": 3430, "\u0120platform": 3431, "\u0120Chinese": 3432, "\u0120(@": 3433, "\u0120hous": 3434, "using": 3435, "itute": 3436, "\u0120speech": 3437, "\u0120reality": 3438, "icated": 3439, "\u0120kids": 3440, "\u0120James": 3441, "\u0120avoid": 3442, "\u0120throughout": 3443, "\u0120football": 3444, "\u0120student": 3445, "ara": 3446, "\u0120couldn": 3447, "rowd": 3448, "BI": 3449, "\u0120unf": 3450, "ford": 3451, "\u0120immediately": 3452, "oul": 3453, "\u0120rob": 3454, "\u0120includes": 3455, "\u0120cat": 3456, "\u0120concept": 3457, "egr": 3458, "\u0120center": 3459, "\u0120choice": 3460, "\u0120scene": 3461, "\u0120complex": 3462, "anch": 3463, "\u0120additional": 3464, "sp": 3465, "\u0120Mon": 3466, "\u0120challeng": 3467, "\u0120Cons": 3468, "\u0120wife": 3469, "\u0120clos": 3470, "urt": 3471, "\u0120tro": 3472, "\u0120recomm": 3473, "\u0120researc": 3474, "Re": 3475, "\u0120epis": 3476, "hest": 3477, "itor": 3478, "All": 3479, "\u0120ver": 3480, "\u0120Minister": 3481, "\u0120sle": 3482, "\u0120corpor": 3483, "\u0120\u00e2\u0122\u00a6": 3484, "\u0120designed": 3485, "\u0120Ser": 3486, "urg": 3487, "agon": 3488, "\u0120remember": 3489, "\u0120software": 3490, "\u0120safety": 3491, "\u0120Indian": 3492, "wise": 3493, "\u0120gone": 3494, "\u0120il": 3495, "astic": 3496, "ports": 3497, "\u0120cast": 3498, "\u0120sell": 3499, "\u0120toward": 3500, "\u0120agency": 3501, "\u0120ten": 3502, "\u0120officer": 3503, "aches": 3504, "\u0120figure": 3505, "\u0120piece": 3506, "\u0120brain": 3507, "omen": 3508, "\u0120battle": 3509, "\u0120Jack": 3510, "men": 3511, "\u0120counter": 3512, "\u0120debate": 3513, "airs": 3514, "ression": 3515, "ston": 3516, "\u0120thousands": 3517, "adem": 3518, "\u0120swe": 3519, "rupt": 3520, "\u0120opin": 3521, "\u0120ahead": 3522, "icient": 3523, "Now": 3524, "imum": 3525, "\u0120relative": 3526, "irth": 3527, "\u0120letter": 3528, "\u0120receive": 3529, "\u0120pressure": 3530, "\u0120\u00d0": 3531, "\u0120Bo": 3532, "\u0120blog": 3533, "ilies": 3534, "ampions": 3535, "\u0120>": 3536, "\u0120sil": 3537, "\u0120moved": 3538, "\u0120launch": 3539, "\u0120appears": 3540, "\u0120option": 3541, "\u0120Play": 3542, "\u0120passed": 3543, "\u0120ut": 3544, "\u0120prec": 3545, "\u0120stage": 3546, "roy": 3547, "oes": 3548, "\u012060": 3549, "\u0120clean": 3550, "\u0120Serv": 3551, "olute": 3552, "\u0120II": 3553, "atever": 3554, "berg": 3555, "OT": 3556, "\u0120property": 3557, "27": 3558, "\u0120helped": 3559, "amb": 3560, "\u0120drive": 3561, "\u0120Apple": 3562, "just": 3563, "\u0120alleged": 3564, "\u0120Green": 3565, "\u0120twe": 3566, "new": 3567, "\u0120disapp": 3568, "\u0120tour": 3569, "\u0120meaning": 3570, "\u0120rock": 3571, "\u0120dog": 3572, "\u0120x": 3573, "\u0120cris": 3574, "itation": 3575, "\u0120Associ": 3576, "\u0120suspect": 3577, "\u0120date": 3578, "\u0120Rich": 3579, "aughter": 3580, "\u0120moving": 3581, "\u0120score": 3582, "\u0120Democrats": 3583, "\u0120organization": 3584, "\u0120sat": 3585, "\u0120conditions": 3586, "\u0120touch": 3587, "\u0120dark": 3588, "\u0120command": 3589, "\u0120Then": 3590, "\u0120ign": 3591, "?\"": 3592, "\u0120reasons": 3593, "\u0120budget": 3594, "\u0120park": 3595, "more": 3596, "\u0120nuclear": 3597, "\u0120myself": 3598, "\u0120nom": 3599, "\u0120deg": 3600, "\u0120happy": 3601, "\u0120device": 3602, "\u0120difference": 3603, "rief": 3604, "\u0120Sim": 3605, "\u0120maybe": 3606, "chan": 3607, "\u0120beginning": 3608, "AD": 3609, "\u0120copy": 3610, "\u0120nature": 3611, "\u0120failed": 3612, "wood": 3613, "\u0120fan": 3614, "\u0120characters": 3615, "yan": 3616, "\u0120computer": 3617, "\u0120encour": 3618, "\u0120aim": 3619, "\u0120Mart": 3620, "\u0120title": 3621, "\u0120wall": 3622, "\u0120compared": 3623, "\u0120league": 3624, "ocked": 3625, "\u0120Super": 3626, "ivity": 3627, "\u0120estim": 3628, "\u0120Val": 3629, "\u0120Star": 3630, "\u0120college": 3631, "\u0120eyes": 3632, "\u0120shown": 3633, "\u0120English": 3634, "\u0120century": 3635, "\u0120powerful": 3636, "\u0120Day": 3637, "lease": 3638, "ource": 3639, "\u0120bal": 3640, "aint": 3641, "\u0120limited": 3642, "\u0120yes": 3643, "\u0120band": 3644, "\u0120contribut": 3645, "\u0120positive": 3646, "\u0120forced": 3647, "\u0120sche": 3648, "\u0120necessary": 3649, "\u0120refer": 3650, "\u0120candidate": 3651, "\u0120stra": 3652, "\u0120disp": 3653, "35": 3654, "cient": 3655, "\u0120books": 3656, "\u0120trust": 3657, "AP": 3658, "\u0120French": 3659, "\u0120largest": 3660, "26": 3661, "\u0120arch": 3662, "enty": 3663, "\u0120sal": 3664, "\u0120Here": 3665, "\u0120conference": 3666, "\u0120Rober": 3667, "aud": 3668, "\u0120note": 3669, "\u0120analysis": 3670, "ufact": 3671, "\u0120spending": 3672, "\u0120presidential": 3673, "45": 3674, "\u0120Of": 3675, "\u0120citizens": 3676, "orks": 3677, "\u0120schools": 3678, "igration": 3679, "\u0120Syria": 3680, "\u0120throw": 3681, "venue": 3682, "\u0120Ben": 3683, "\u0120aware": 3684, "\u0120meant": 3685, "\u0120executive": 3686, "\u0120eventually": 3687, "My": 3688, "\u0120physical": 3689, "\u0120followed": 3690, "\u0120feature": 3691, "\u0120treatment": 3692, "\u0120crowd": 3693, "Be": 3694, "\u0120Tor": 3695, "\u0120Wind": 3696, "\u0120firm": 3697, "\u0120streng": 3698, "\u0120confir": 3699, "\u0120mix": 3700, "\u0120bott": 3701, "ero": 3702, "\u0120correct": 3703, "orney": 3704, "\u012029": 3705, "ares": 3706, "\u0120Dis": 3707, "\u0120grad": 3708, "\u0120religious": 3709, "\u0120easily": 3710, "\u0120autom": 3711, "\u0120esc": 3712, "\u0120pus": 3713, "band": 3714, "board": 3715, "Is": 3716, "\u0120cool": 3717, "etro": 3718, "\u0120196": 3719, "\u0120families": 3720, "\u0120illeg": 3721, "ressed": 3722, "craft": 3723, "cul": 3724, "rated": 3725, "\u0120actions": 3726, "\u0120overall": 3727, "\u0120Air": 3728, "\u0120Mex": 3729, "\u0120allows": 3730, "\u0120gives": 3731, "\u0120feed": 3732, "\u0120\u00c2\u00a3": 3733, "):": 3734, "\u0120susp": 3735, "ube": 3736, "\u0120yourself": 3737, "By": 3738, "\u0120draft": 3739, "bum": 3740, "ken": 3741, "\u0120smart": 3742, "\u0120appeared": 3743, "\u0120detail": 3744, "\u0120income": 3745, "iring": 3746, "\u0120analy": 3747, "\u0120Bel": 3748, "\u0120signed": 3749, "New": 3750, "encies": 3751, "\u0120central": 3752, "\u0120ideas": 3753, "\u0120ang": 3754, "\u0120Govern": 3755, "\u0120senior": 3756, "Advertisement": 3757, "\u0120frequ": 3758, "\u0120weapons": 3759, "ID": 3760, "\u0120Bre": 3761, "\u0120har": 3762, "\u0120display": 3763, "\u0120promot": 3764, "\u0120nice": 3765, "\u0120credit": 3766, "\u0120decades": 3767, "\u0120psych": 3768, "\u0120politics": 3769, "Don": 3770, "\u0120crime": 3771, "OM": 3772, "EC": 3773, "\u0120uses": 3774, "inn": 3775, "\u0120door": 3776, "\u0120dise": 3777, "uty": 3778, "\u0120International": 3779, "\u0120unique": 3780, "28": 3781, "\u0120altern": 3782, "\u0120lif": 3783, "According": 3784, "\u0120drop": 3785, "\u0120sales": 3786, "mar": 3787, "\u0120developed": 3788, "Ar": 3789, "resh": 3790, "\u0120customers": 3791, "ET": 3792, "\u0120benefits": 3793, "\u0120conflic": 3794, "urance": 3795, "\u0120related": 3796, "\u0120crisis": 3797, "\u0120School": 3798, "\u0120mist": 3799, "erry": 3800, "iable": 3801, "\u0120predict": 3802, "\u0120noted": 3803, "\u0120Cap": 3804, "29": 3805, "\u0120Australia": 3806, "\u0120EU": 3807, "\u0120truth": 3808, "box": 3809, "part": 3810, "\u0120goals": 3811, "iny": 3812, "\u0120individuals": 3813, "\u0120charge": 3814, "\u0120Earth": 3815, "\u0120beaut": 3816, "\u0120continues": 3817, "onents": 3818, "\u0120Union": 3819, "\u0120Arab": 3820, "\u0120observ": 3821, "\u0120rap": 3822, "\u0120challenge": 3823, "\u0120sto": 3824, "nown": 3825, "\u0120apparent": 3826, "\u0120Angel": 3827, "itely": 3828, "\u0120Smith": 3829, "\u0120lic": 3830, "\u0120projects": 3831, "\u0120peace": 3832, "\u0120measure": 3833, "\u0120Police": 3834, "oti": 3835, "\u0120intelligence": 3836, "\u0120Christian": 3837, "\u0120previously": 3838, "\u0120Germany": 3839, "\u0120fully": 3840, "\u0120rule": 3841, "\u0120manager": 3842, "\u0120brother": 3843, "\u0120rates": 3844, "\u0120advant": 3845, "Un": 3846, "change": 3847, "\u0120expand": 3848, "\u0120clearly": 3849, "\u0120reform": 3850, "\u0120lines": 3851, "net": 3852, "\u0120successful": 3853, "riage": 3854, "\u0120highly": 3855, "\u0120larger": 3856, "ounds": 3857, "21": 3858, "\u0120traff": 3859, "\u0120spread": 3860, "iance": 3861, "\u0120seemed": 3862, "\u0120Council": 3863, "\u0120straight": 3864, "Some": 3865, "\u0120criminal": 3866, "\u0120Comp": 3867, "\u0120minor": 3868, "\u0120emb": 3869, "ki": 3870, "\u0120George": 3871, "\u0120programs": 3872, "iced": 3873, "attle": 3874, "owers": 3875, "\u0120Franc": 3876, "\u0120incident": 3877, "\u0120resources": 3878, "\u0120Tom": 3879, "\u0120greater": 3880, "\u0120primary": 3881, "IA": 3882, "inated": 3883, "antly": 3884, "\u0120knowledge": 3885, "Pro": 3886, "\u0120studies": 3887, "while": 3888, "dom": 3889, "\u0120save": 3890, "orter": 3891, "\u0120web": 3892, "ategy": 3893, "ean": 3894, "\u0120kept": 3895, "\u0120attract": 3896, "\u0120Flor": 3897, "olic": 3898, "\u0120spir": 3899, "\u0120emot": 3900, "que": 3901, "\u0120color": 3902, "\u0120feet": 3903, "\u0120Cr": 3904, "sey": 3905, "\u0120rare": 3906, "\u0120reached": 3907, "\u0120Ant": 3908, "secut": 3909, "\u0120arm": 3910, "\u0120High": 3911, "levision": 3912, "\u0120Internet": 3913, "\u0120Brown": 3914, "oday": 3915, "iders": 3916, "osh": 3917, "\u0120favorite": 3918, "\u0120places": 3919, "rs": 3920, "\u0120Rec": 3921, "\u0120regular": 3922, "wide": 3923, "ota": 3924, "vere": 3925, "\u0120manufact": 3926, "\u0120laun": 3927, "\u0120Def": 3928, "100": 3929, "\u0120send": 3930, "\u0120prem": 3931, "\u0120Ham": 3932, "roll": 3933, "lick": 3934, "icit": 3935, "\u0120knows": 3936, "\u0120shooting": 3937, "\u0120activity": 3938, "\u0120pun": 3939, "\u0120sources": 3940, "\u0120normal": 3941, "icago": 3942, "bon": 3943, "term": 3944, "ingly": 3945, "onent": 3946, "ser": 3947, "ville": 3948, "\u0120status": 3949, "\u0120fighting": 3950, "\u0120voice": 3951, "\u0120rise": 3952, "ocks": 3953, "\u0120fine": 3954, "\u0120owners": 3955, "\u0120caused": 3956, "\u0120claimed": 3957, "\u0120Mac": 3958, "\u0120enem": 3959, "\u0120liter": 3960, "\u0120Rob": 3961, "\u0120Up": 3962, "\u0120General": 3963, "aith": 3964, "EO": 3965, "\u0120options": 3966, "\u01202007": 3967, "\u0120integr": 3968, "ength": 3969, "usion": 3970, "\u0120spend": 3971, "\u0120Gold": 3972, "ado": 3973, "\u0120cities": 3974, "miss": 3975, "\u0120organiz": 3976, "ING": 3977, "\u0120ended": 3978, "iled": 3979, "\u0120researchers": 3980, "\u0120calling": 3981, "\u0120shut": 3982, "\u0120reflect": 3983, "\u0120La": 3984, "mission": 3985, "mark": 3986, "org": 3987, "\u00e2\u0122\u013f,": 3988, "oles": 3989, "70": 3990, "roid": 3991, "\u0120prices": 3992, "\u0120Every": 3993, "\u0120album": 3994, "\u0120From": 3995, "ifying": 3996, "\u0120employees": 3997, "\u0120female": 3998, "\u0120England": 3999, "ya": 4000, "www": 4001, "\u0120virt": 4002, "\u0120haven": 4003, "\u0120raised": 4004, "mittee": 4005, "\u0120ele": 4006, "\u0120jump": 4007, "uana": 4008, "33": 4009, "\u0120supposed": 4010, "itness": 4011, "\u0120happens": 4012, "\u0120adding": 4013, "\u0120policies": 4014, "\u0120names": 4015, "\u0120charges": 4016, "\u0120pros": 4017, "\u0120trou": 4018, "ica": 4019, "ribution": 4020, "\u0120basic": 4021, "iverse": 4022, "uman": 4023, "Not": 4024, "\u0120Mag": 4025, "\u0120concerns": 4026, "\u0120traditional": 4027, "\u0120wait": 4028, "inger": 4029, "\u0120plant": 4030, "\u0120absolute": 4031, "\u0120acqu": 4032, "\u0120hospital": 4033, "\u0120funding": 4034, "ram": 4035, "\u0120Bay": 4036, "\u0120print": 4037, "\u0120slight": 4038, "\u0120commer": 4039, "rol": 4040, "\u0120patients": 4041, "\u0120authorities": 4042, "\u0120minister": 4043, "Sc": 4044, "\u0120creating": 4045, "\u0120freedom": 4046, "\u0120AP": 4047, "\u0120mechan": 4048, "\u0120scen": 4049, "\u0120Mo": 4050, "\u0120style": 4051, "\u0120seeing": 4052, "\u0120grand": 4053, ".\u00e2\u0122\u013b": 4054, "\u0120beat": 4055, "\u0120lik": 4056, "ona": 4057, "rian": 4058, "\u0120station": 4059, "\u0120Scott": 4060, "see": 4061, "\u0120push": 4062, "ijuana": 4063, "\u0120behavior": 4064, "\u0120beg": 4065, "\u0120leaving": 4066, "\u0120cry": 4067, "\u0120impl": 4068, "\u0120birth": 4069, "\u0120ir": 4070, "\u0120actual": 4071, "EL": 4072, "\u0120ensure": 4073, "\u0120offered": 4074, "pen": 4075, "\u0120agreement": 4076, "\u0120Florida": 4077, "\u0120eth": 4078, "soft": 4079, "\u0120Hillary": 4080, "\u0120posted": 4081, "\u0120gold": 4082, "\u0120Sun": 4083, "\u0120weekend": 4084, "\u0120green": 4085, "\u0120Most": 4086, "\u0120Ber": 4087, "\u0120Reg": 4088, "\u0120adult": 4089, "alse": 4090, "\u0120weight": 4091, "OU": 4092, ".'": 4093, "acing": 4094, "\u0120determin": 4095, "\u0120vac": 4096, "Here": 4097, "\u0120revealed": 4098, "\u0120Well": 4099, "\u0120application": 4100, "\u0120mostly": 4101, "\u0120values": 4102, "\u0120propos": 4103, "itude": 4104, "\u0120Alex": 4105, "aby": 4106, "\u0120willing": 4107, "earch": 4108, "\u0120rank": 4109, "\u0120adop": 4110, "\u0120According": 4111, "\u0120establ": 4112, "\u0120eye": 4113, "\u0120records": 4114, "ection": 4115, "\u00e2\u0122\u00a2": 4116, "500": 4117, "\u0120enforce": 4118, "http": 4119, "\u0120picture": 4120, "\u0120believed": 4121, "pri": 4122, "\u0120mer": 4123, "uild": 4124, "\u0120brief": 4125, "\u0120Let": 4126, "\u0120learned": 4127, "\u0120Law": 4128, "\u0120install": 4129, "\u0120strategy": 4130, "\u0120appl": 4131, "SA": 4132, "igned": 4133, "\u0120choose": 4134, "istry": 4135, "\u0120dire": 4136, "\u0120wonder": 4137, "\u0120qual": 4138, "\u0120massive": 4139, "\u0120devices": 4140, "\u0120benefit": 4141, "\u0120wild": 4142, "\u0120parties": 4143, "\u0120Chicago": 4144, "\u0120lawy": 4145, "\u0120People": 4146, "\u0120uns": 4147, "cher": 4148, "\u0120cars": 4149, "\u0120Trans": 4150, "\u0120Port": 4151, "cont": 4152, "\u0120Phil": 4153, "\u0120arrested": 4154, "\u0120mount": 4155, "\u0120whatever": 4156, "\u0120wat": 4157, "\u0120Oh": 4158, "\u0120France": 4159, "\u0120street": 4160, "\u0120;": 4161, "\u0120provides": 4162, "\u0120whom": 4163, "\u0120assault": 4164, "90": 4165, "liament": 4166, "\u0120asking": 4167, "\u0120influence": 4168, "ties": 4169, "\u0120judge": 4170, "\u0120lose": 4171, "\u0120fat": 4172, "\u0120feeling": 4173, "\u0120operations": 4174, "\u0120produced": 4175, "\u0120temper": 4176, "ste": 4177, "\u0120critical": 4178, "\u0120Secret": 4179, "\u0120Lou": 4180, "\u0120negoti": 4181, "point": 4182, "\u0120mission": 4183, "\u0120enter": 4184, "\u0120Bush": 4185, "Ex": 4186, "\u0120images": 4187, "\u00d0\u00be": 4188, "\u0120Stud": 4189, "\u0120confirmed": 4190, "\u0120showing": 4191, "IL": 4192, "\u0120district": 4193, "ription": 4194, "\u0120runs": 4195, "\u0120pattern": 4196, "gen": 4197, "\u0120tend": 4198, "\u0120Mat": 4199, "\u0120border": 4200, "\u0120residents": 4201, "orial": 4202, "rav": 4203, "\u0120debt": 4204, "However": 4205, "\u0120\u00c3": 4206, "aked": 4207, "no": 4208, "\u0120cru": 4209, "\u0120teac": 4210, "mine": 4211, "\u0120Committee": 4212, "udd": 4213, "\u0120opposition": 4214, "Cl": 4215, "\u0120celebr": 4216, "\u0120Wall": 4217, "\u0120Health": 4218, "\u0120section": 4219, "\u0120defend": 4220, "\u0120etc": 4221, "estic": 4222, "\u0120produce": 4223, "icial": 4224, "\u0120Commission": 4225, "\u0120drink": 4226, "\u0120independent": 4227, "\u0120Mod": 4228, "ront": 4229, "cell": 4230, "\u0120Why": 4231, "\u0120brand": 4232, "ented": 4233, "ags": 4234, "ugg": 4235, "\u0120core": 4236, "\u0120Press": 4237, "\u0120tick": 4238, "\u0120digital": 4239, "\u0120Bit": 4240, "\u0120hero": 4241, "\u0120advoc": 4242, "ae": 4243, "\u0120dollars": 4244, "ocr": 4245, "rial": 4246, "\u0120effective": 4247, "\u0120solution": 4248, "\u0120Mal": 4249, "\u0120vill": 4250, "\u0120interested": 4251, "\u0120Sam": 4252, "\u0120Korea": 4253, "BA": 4254, "\u0120highest": 4255, "ords": 4256, "\u0120memory": 4257, "\u0120opening": 4258, "\u0120worse": 4259, "\u0120learning": 4260, "\u0120responsible": 4261, "\u0120trial": 4262, "\u0120daily": 4263, "\u0120kick": 4264, "\u0120theory": 4265, "\u0120Other": 4266, "\u0120offers": 4267, "\u0120Palest": 4268, "\u0120replace": 4269, "\u0120restrict": 4270, "\u0120Get": 4271, "\u0120mur": 4272, "\u0120Office": 4273, "\u0120agreed": 4274, "\u0120television": 4275, "\u0120Francis": 4276, "cience": 4277, "\u0120Micro": 4278, "\u0120Because": 4279, "\u0120occas": 4280, "ST": 4281, "illing": 4282, "CC": 4283, "\u0120train": 4284, "\u0120investment": 4285, "\u0120vs": 4286, "\u0120types": 4287, "iation": 4288, "\u0120Western": 4289, "aks": 4290, "icians": 4291, "\u0120chair": 4292, "\u0120miles": 4293, "\u0120millions": 4294, "uries": 4295, "\u0120chem": 4296, "\u0120Justice": 4297, "\u0120Del": 4298, "\u0120generally": 4299, "\u0120basis": 4300, "\u0120proposed": 4301, "\u012080": 4302, "\u0120Mike": 4303, "\u0120Mil": 4304, "\u0120Cup": 4305, "These": 4306, "ipe": 4307, "\u0120heavy": 4308, "\u0120explained": 4309, "\u0120map": 4310, "\u0120Our": 4311, "AA": 4312, "rad": 4313, "\u0120der": 4314, "\u0120bur": 4315, "oly": 4316, "\u0120partners": 4317, "ander": 4318, "\u0120Add": 4319, "\u0120opinion": 4320, "win": 4321, "\u0120defe": 4322, "\u0120onto": 4323, "\u0120protest": 4324, "Con": 4325, "________": 4326, "Get": 4327, "\u0120associated": 4328, "\u0120load": 4329, "rig": 4330, "azing": 4331, "\u0120NFL": 4332, "rate": 4333, "oom": 4334, "44": 4335, "\u0120Found": 4336, "\u0120male": 4337, "\u0120becomes": 4338, "\u0120reject": 4339, "outhern": 4340, "====": 4341, "\u0120Security": 4342, "vest": 4343, "\u0120coal": 4344, "\u0120obtain": 4345, "\u0120destroy": 4346, "\u0120advantage": 4347, "\u0120assum": 4348, "\u0120Liber": 4349, "\u0120condition": 4350, "\u0120announce": 4351, "\u0120hundreds": 4352, "\u0120achieve": 4353, "\u0120opened": 4354, "eline": 4355, "\u0120understanding": 4356, "odes": 4357, "\u0120Johnson": 4358, "coming": 4359, "icip": 4360, "\u0120surround": 4361, "ading": 4362, "orthern": 4363, "bert": 4364, "well": 4365, "la": 4366, "upp": 4367, "\u0120initial": 4368, "\u0120Att": 4369, "\u0120Big": 4370, "\u0120sleep": 4371, "36": 4372, "\u0120ship": 4373, "\u0120marriage": 4374, "\u0120management": 4375, "\u0120Windows": 4376, "\u0120thus": 4377, "\u0120limit": 4378, "\u0120born": 4379, "32": 4380, "\u0120becoming": 4381, "known": 4382, "\u0120photo": 4383, "\u0120easier": 4384, "FC": 4385, "\u0120Great": 4386, "\u0120rat": 4387, "\u0120legislation": 4388, "\u0120controvers": 4389, "\u0120unlike": 4390, "\u0120electric": 4391, "\u0120Many": 4392, "\u0120camera": 4393, "witch": 4394, "\u0120accused": 4395, "\u0120spl": 4396, "\u0120neighbor": 4397, "\u0120double": 4398, "\u0120ice": 4399, "\u0120species": 4400, "lant": 4401, "\u0120shared": 4402, "\u0120join": 4403, "\u0120illegal": 4404, "\u012031": 4405, "\u0120Lab": 4406, "\u01202006": 4407, "Mr": 4408, "\u0120harm": 4409, "\u0120machine": 4410, "\u0120served": 4411, "\u0120Jer": 4412, "GB": 4413, "\u0120extremely": 4414, "olf": 4415, "\u0120active": 4416, "\u012035": 4417, "\u0120serve": 4418, "\u0120documents": 4419, "\u0120Islamic": 4420, "\u0120frame": 4421, "za": 4422, "\u0120strik": 4423, "level": 4424, "\u0120Dist": 4425, "\u0120audience": 4426, "BS": 4427, "\u0120location": 4428, "\u0120AM": 4429, "\u0120scientists": 4430, "\u0120bottom": 4431, "\u0120victims": 4432, "\u0120Art": 4433, "orrow": 4434, "\u0120wealth": 4435, "\u0120professional": 4436, "\u0120resist": 4437, "ih": 4438, "\u0120reduce": 4439, "\u0120belief": 4440, "\u0120nine": 4441, "\u0120solid": 4442, "\u0120winning": 4443, "\u0120marijuana": 4444, "ears": 4445, "\u0120Uk": 4446, "\u0120negative": 4447, "75": 4448, "iful": 4449, "\u0120communities": 4450, "\u0120returned": 4451, "ortunately": 4452, "\u0120bed": 4453, "\u0120incred": 4454, "\u0120PM": 4455, "\u0120Institute": 4456, "met": 4457, "tered": 4458, "\u0120church": 4459, "PS": 4460, "\u0120department": 4461, "irgin": 4462, "\u0120Sanders": 4463, "\u0120ran": 4464, "\u0120victory": 4465, "rey": 4466, "\u0120purpose": 4467, "\u012090": 4468, "\u0120Commun": 4469, "\u0120amb": 4470, "lands": 4471, "\u0120vehicle": 4472, "\u0120internet": 4473, "\u0120leadership": 4474, "ios": 4475, "\u0120Hall": 4476, "istics": 4477, "\u0120bomb": 4478, "\u0120mobile": 4479, "ghan": 4480, "\u0120instance": 4481, "ipped": 4482, "38": 4483, "\u0120separate": 4484, "\u0120existing": 4485, "\u0120notice": 4486, "\u0120hearing": 4487, "\u0120die": 4488, "\u0120explain": 4489, "\u0120doubt": 4490, "\u0120faith": 4491, "\u0120teach": 4492, "house": 4493, "\u0120Your": 4494, "atically": 4495, "\u0120episode": 4496, "\u0120watching": 4497, "\u0120comfort": 4498, "\u0120Canadian": 4499, "\u0120Bank": 4500, "\u0120notes": 4501, "\u0120radio": 4502, "\u0120Ev": 4503, "\u0120fresh": 4504, "\u0120Fin": 4505, "\u0120unc": 4506, "\u0120views": 4507, "\u0120Inc": 4508, "\u0120putting": 4509, "asy": 4510, "\u0120supporters": 4511, "\u0120conservative": 4512, "\u0120purs": 4513, "\u0120argument": 4514, "omas": 4515, "\u0120micro": 4516, "ario": 4517, "acity": 4518, "\u0120launched": 4519, "scrib": 4520, "works": 4521, "OL": 4522, "\u0120appeal": 4523, "iliar": 4524, "\u0120items": 4525, "\u0120committee": 4526, "resp": 4527, "\u0120Mad": 4528, "which": 4529, "\u0120definitely": 4530, "\u0120dangerous": 4531, "iller": 4532, "PA": 4533, "zen": 4534, "\u0120coverage": 4535, "\u0120direction": 4536, "\u0120Over": 4537, "\u0120charged": 4538, "\u0120floor": 4539, "\u0120sun": 4540, "\u0120max": 4541, "ography": 4542, "34": 4543, "EM": 4544, "\u0120Carol": 4545, "\u0120Church": 4546, "\u0120Fox": 4547, "\u0120issued": 4548, "\u0120drugs": 4549, "Image": 4550, "ipp": 4551, "\u0120task": 4552, "\u0120background": 4553, "\u0120competition": 4554, "\u0120trend": 4555, "\u0120stated": 4556, "vention": 4557, "andom": 4558, "ada": 4559, "\u0120traffic": 4560, "\u0120FBI": 4561, "\u0120commercial": 4562, "\u0120Direct": 4563, "urb": 4564, "itt": 4565, "NA": 4566, "\u0120spoke": 4567, "\u0120sett": 4568, "inct": 4569, "\u0120transfer": 4570, "\u0120suggested": 4571, "\u0120structure": 4572, "\u0120sites": 4573, "\u0120hus": 4574, "\u0120north": 4575, "\u0120Since": 4576, "\u0120Like": 4577, "\u0120restaur": 4578, "ampionship": 4579, "\u0120labor": 4580, "\u0120decade": 4581, "\u0120repeated": 4582, "\u0120Game": 4583, "\u0120react": 4584, "oman": 4585, "\u0120cards": 4586, "\u0120animals": 4587, "going": 4588, "\u0120novel": 4589, "ctors": 4590, "but": 4591, "ribute": 4592, "\u0120daughter": 4593, "anted": 4594, "\u0120Sl": 4595, "\u0120driving": 4596, "\u0120closed": 4597, "\u0120worst": 4598, "\u0120contain": 4599, "\u0120entirely": 4600, "\u0120ded": 4601, "\u0120Britain": 4602, "ady": 4603, "gency": 4604, "\u0120driver": 4605, "\u0120Wil": 4606, "\u0120disease": 4607, "\u0120telling": 4608, "iling": 4609, "\u0120smaller": 4610, "\u0120discovered": 4611, "\u0120nor": 4612, "Bl": 4613, "akistan": 4614, "\u0120refere": 4615, "\u0120Pri": 4616, "Americ": 4617, "\u0120Los": 4618, "ius": 4619, "\u0120hack": 4620, "hem": 4621, "equ": 4622, "!\u00e2\u0122\u013f": 4623, "ference": 4624, "\u0120Que": 4625, "spe": 4626, "\u0120false": 4627, "\u0120cash": 4628, "\u0120concerned": 4629, "ulf": 4630, "\u0120plays": 4631, "\u0120surface": 4632, "semb": 4633, "\u0120supported": 4634, "annel": 4635, "ulated": 4636, "\u0120tools": 4637, "oyal": 4638, "\u0120compar": 4639, "\u0120transport": 4640, "\u0120Chris": 4641, "\u0120experiment": 4642, "\u0120finding": 4643, "night": 4644, "\u0120categ": 4645, "\u00e3\u0124": 4646, "\u0120aspect": 4647, "##": 4648, "\u0120businesses": 4649, "\u012070": 4650, "\u0120UN": 4651, "ait": 4652, "\u0120farm": 4653, "\u0120please": 4654, "\u0120older": 4655, "azon": 4656, "how": 4657, "\u0120activities": 4658, "\u0120requires": 4659, "phone": 4660, "CH": 4661, "\u0120gay": 4662, "\u0120Jones": 4663, "do": 4664, "ibrary": 4665, "\u0120strength": 4666, "48": 4667, "\u0120wel": 4668, "andon": 4669, "\u0120insurance": 4670, "\u0120consequ": 4671, "37": 4672, "\u0120largely": 4673, "\u0120murder": 4674, "NN": 4675, "ici": 4676, "55": 4677, "\u0120exerc": 4678, "\u0120caught": 4679, "\u0120candidates": 4680, "kins": 4681, "\u0120Israeli": 4682, "\u0120allowing": 4683, "icy": 4684, "\u0120blue": 4685, "\u0120Are": 4686, "\u0120annual": 4687, "\u0120Ken": 4688, "\u0120Tre": 4689, "\u0120testing": 4690, "ossible": 4691, "\u0120strateg": 4692, "\u0120Sup": 4693, "\u0120raise": 4694, "\u0120stock": 4695, "arant": 4696, "overy": 4697, "\u0120Robert": 4698, "izes": 4699, "\u0120decisions": 4700, "\u0120accur": 4701, "rick": 4702, "\u0120context": 4703, "\u0120fuel": 4704, "\u0120Ac": 4705, "SP": 4706, "lor": 4707, "osure": 4708, "\u0120Ukrain": 4709, "\u0120concern": 4710, "\u0120afford": 4711, "\u0120believes": 4712, "\u0120construction": 4713, "\u0120truly": 4714, "****": 4715, "\u0120Ty": 4716, "\u0120Miss": 4717, "\u0120ge": 4718, "\u0120justice": 4719, "igrants": 4720, "\u0120generation": 4721, "\u0120highlight": 4722, "\u0120unit": 4723, "rim": 4724, "\u0120presence": 4725, "\u0120Jewish": 4726, "anging": 4727, "!!": 4728, "\u0120Sil": 4729, "\u00d0\u00b0": 4730, "tery": 4731, "\u00d0\u00b5": 4732, "ception": 4733, "\u0120Africa": 4734, "\u0120guess": 4735, "ancy": 4736, "\u0120witness": 4737, "itable": 4738, "\u0120holding": 4739, "\u0120Gree": 4740, "\u0120establish": 4741, "\u0120length": 4742, "\u0120planning": 4743, "bre": 4744, "ava": 4745, "\u0120African": 4746, "\u0120sequ": 4747, "cknow": 4748, "\u0120refuge": 4749, "\u0120placed": 4750, "\u0120catch": 4751, "\u0120Afghan": 4752, "\u0120san": 4753, "inter": 4754, "\u0120Association": 4755, "\u0120tells": 4756, "\u00e2\u0122\u013a": 4757, "\u0120scale": 4758, "ey": 4759, "\u0120spokesman": 4760, "\u0120tim": 4761, "nel": 4762, "\u0120rough": 4763, "\u0120attend": 4764, "olly": 4765, "\u0120Ver": 4766, "\u0120cells": 4767, "\u0120joined": 4768, "\u0120Pre": 4769, "\u0120mentioned": 4770, "\u0120interests": 4771, "\u0120abuse": 4772, "pective": 4773, "\u0120Jim": 4774, "More": 4775, "\u0120hasn": 4776, "\u0120PC": 4777, "Le": 4778, "\u0120initi": 4779, "\u0120enforcement": 4780, "\u0120kid": 4781, "\u0120GOP": 4782, "\u0120introduced": 4783, "\u0120deliver": 4784, "\u0120conflict": 4785, "\u0120Mer": 4786, "\u0120Microsoft": 4787, "\u0120phil": 4788, "\u00e2\u0122\u0136\u00e2\u0122\u0136": 4789, "\u0120update": 4790, "\u0120missing": 4791, "ros": 4792, "\u0120providing": 4793, "\u0120waiting": 4794, "\u0120cancer": 4795, "39": 4796, "\u0120recommend": 4797, "ocracy": 4798, "\u0120established": 4799, "isation": 4800, "\u0120eat": 4801, "bour": 4802, "\u0120Yes": 4803, "\u0120occup": 4804, "\u0120Frank": 4805, "\u0120Jeff": 4806, "\u0120Angeles": 4807, "\u0120removed": 4808, "\u01202005": 4809, "ula": 4810, "\u0120offensive": 4811, "\u0120Fore": 4812, "\u0120Instead": 4813, "icon": 4814, "\u0120injury": 4815, "\u0120sports": 4816, "47": 4817, "\u0120fant": 4818, "\u0120discussion": 4819, "vant": 4820, "\u0120operation": 4821, "\u0120download": 4822, "\u0120useful": 4823, "\u0120newsp": 4824, "\u0120conversation": 4825, "\u0120homes": 4826, "ronic": 4827, "\u0120south": 4828, "\u0120cook": 4829, "\u0120CEO": 4830, "\u0120assess": 4831, "\u0120Group": 4832, "itz": 4833, "formation": 4834, "lig": 4835, "\u0120banks": 4836, "onto": 4837, "\u0120stopped": 4838, "\u0120Step": 4839, "\u0120Const": 4840, "\u0120obvious": 4841, "ications": 4842, "\u0120measures": 4843, "\u0120models": 4844, "\u0120Kh": 4845, "\u0120fourth": 4846, "\u0120MP": 4847, "Our": 4848, "season": 4849, "DA": 4850, "what": 4851, "\u0120bul": 4852, "anda": 4853, "\u01202018": 4854, "\u0120files": 4855, "\u0120girls": 4856, "\u0120Louis": 4857, "\u0120stick": 4858, "cks": 4859, "azine": 4860, "mail": 4861, "umn": 4862, "\u0120managed": 4863, "iter": 4864, "apped": 4865, "\u0120Palestin": 4866, "oted": 4867, "\u0120figures": 4868, "oms": 4869, "\u0120Tim": 4870, "\u0120Leg": 4871, "\u0120identified": 4872, "\u0120graph": 4873, "\u0120Jud": 4874, "\u0120Sal": 4875, "\u0120finished": 4876, "\u0120funds": 4877, "Pl": 4878, "\u0120Pakistan": 4879, "real": 4880, "\u0120setting": 4881, "\u0120conclud": 4882, "\u0120prefer": 4883, "\u0120hair": 4884, "\u0120committed": 4885, "\u0120Mexico": 4886, "49": 4887, "\u0120skills": 4888, "kin": 4889, "\u0120appropri": 4890, "\u0120spirit": 4891, "\u0120Rock": 4892, "\u0120veter": 4893, "\u0120focused": 4894, "\u0120arrived": 4895, "\u0120THE": 4896, "\u0120housing": 4897, "\u0120Virgin": 4898, "\u0120keeping": 4899, "\u0120therefore": 4900, "\u0120acknow": 4901, "\u0120detect": 4902, "ulate": 4903, "Des": 4904, "\u0120partner": 4905, "\u0120exclus": 4906, "igan": 4907, "\u0120Android": 4908, "enses": 4909, "ups": 4910, "\u0120earth": 4911, "\u0120transl": 4912, "outs": 4913, "place": 4914, "\u0120tough": 4915, "\u0120Japanese": 4916, "\u01202000": 4917, "\u0120relatively": 4918, "\u00c3\u00a1": 4919, "\u0120Supreme": 4920, "owl": 4921, "wing": 4922, "\u0120identity": 4923, "\u0120feels": 4924, "rd": 4925, "\u0120Met": 4926, "\u0120otherwise": 4927, "\u0120survey": 4928, "RA": 4929, "\u0120Ryan": 4930, "ocal": 4931, "ication": 4932, "itutional": 4933, "\u0120protection": 4934, "agn": 4935, "\u0120exchange": 4936, "\u0120owner": 4937, "isf": 4938, "Trump": 4939, "\u0120steps": 4940, "\u0120Inter": 4941, "\u0120trip": 4942, "imb": 4943, "\u0120husband": 4944, "\u0120Mont": 4945, "\u0120tweet": 4946, "\u0120connection": 4947, "\u0120Army": 4948, "\u0120slightly": 4949, "\u0120Prof": 4950, "eah": 4951, "ka": 4952, "\u0120weak": 4953, "\u0120Government": 4954, "verse": 4955, "\":": 4956, "\u0120circum": 4957, "\u0120elements": 4958, "\u0120click": 4959, "\u0120Richard": 4960, "\u0120strike": 4961, "\u0120photos": 4962, "ga": 4963, "\u0120mere": 4964, "\u0120defensive": 4965, "dden": 4966, "gar": 4967, "\u0120gain": 4968, "\u0120fle": 4969, "\u0120depend": 4970, "ucky": 4971, "\u0120collection": 4972, "onym": 4973, "hens": 4974, "\u0120killing": 4975, "\u0120roll": 4976, "ighter": 4977, "Go": 4978, "\u0120corner": 4979, "\u0120Martin": 4980, "ancing": 4981, "odies": 4982, "\u0120suggests": 4983, "uct": 4984, "\u0120aggress": 4985, "with": 4986, "prof": 4987, "\u0120guard": 4988, "Photo": 4989, "\u0120gender": 4990, "makers": 4991, "\u0120College": 4992, "\u0120commission": 4993, "\u0120Although": 4994, "range": 4995, "\u0120dat": 4996, "\u0120Sur": 4997, "46": 4998, "\u0120Ir": 4999, "\u0120Dec": 5000, "\u0120mental": 5001, "icide": 5002, "\u0120amazing": 5003, "rees": 5004, "\u0120Sub": 5005, "hi": 5006, "\u0120planet": 5007, "\u0120Team": 5008, "rency": 5009, "\u0120Out": 5010, "\u0120bigger": 5011, "\u0120failure": 5012, "ym": 5013, "\u0120Jose": 5014, "\u0120supply": 5015, "Why": 5016, "ania": 5017, "\u0120Nor": 5018, "\u0120starts": 5019, "gers": 5020, "\u0120sides": 5021, "hedul": 5022, "iser": 5023, "\u0120familiar": 5024, "\u0120remind": 5025, "\u0120sust": 5026, "\u0120spect": 5027, "ils": 5028, "uate": 5029, "\u0120speaking": 5030, "ano": 5031, "\u0120talks": 5032, "\u0120happening": 5033, "mas": 5034, "gypt": 5035, "\u0120organizations": 5036, "\u0120hate": 5037, "\u0120window": 5038, "\u0120army": 5039, "\u0120Good": 5040, "\u0120Joe": 5041, "\u0120none": 5042, "uke": 5043, "\u0120taxes": 5044, "\u0120planned": 5045, "\u0120Pet": 5046, "\u0120thanks": 5047, "\u0120Mary": 5048, "\u0120struct": 5049, "\u0120pit": 5050, "\u0120decide": 5051, "\u0120sudden": 5052, "\u0120wish": 5053, "lo": 5054, "\u0120crew": 5055, "\u0120carried": 5056, "\u0120appoint": 5057, "oston": 5058, "\u0120pet": 5059, "awn": 5060, "eless": 5061, "agues": 5062, "ynam": 5063, "\u0120regist": 5064, "TC": 5065, "\u0120multi": 5066, "idering": 5067, "\u0120helping": 5068, "Last": 5069, "\u0120award": 5070, "\u0120standards": 5071, "\u012032": 5072, "\u0120Fire": 5073, "\u0120revolution": 5074, "\u0120environmental": 5075, "].": 5076, "\u0120Web": 5077, "arsh": 5078, "\u0120Thomas": 5079, "olit": 5080, "\u0120script": 5081, "pm": 5082, "ola": 5083, "\u0120seconds": 5084, "gn": 5085, "run": 5086, "\u0120Research": 5087, "\u0120scientific": 5088, "\u0120Bern": 5089, "\u0120immigration": 5090, "\u0120standing": 5091, "\u0120Their": 5092, "\u012045": 5093, "stream": 5094, "ocol": 5095, "\u0120que": 5096, "\u0120beer": 5097, "\u0120domestic": 5098, "imal": 5099, "adium": 5100, "\u0120pair": 5101, "uters": 5102, "\u0120Also": 5103, "\u0120Secretary": 5104, "\u0120Us": 5105, "\u0120academ": 5106, "\u0120cold": 5107, "\u0120variety": 5108, "\u0120markets": 5109, "\u0120sch": 5110, "fe": 5111, "HL": 5112, "\u0120territ": 5113, "\u0120dropped": 5114, "\u0120accounts": 5115, "!\"": 5116, "\u0120Atlant": 5117, "\u0120filed": 5118, "erous": 5119, "acks": 5120, "illa": 5121, "\u0120balance": 5122, "\u0120impossible": 5123, "\u0120Ter": 5124, "aven": 5125, "\u0120interact": 5126, "\u0120neighborhood": 5127, "\u0120degree": 5128, "Read": 5129, "\u0120turns": 5130, "ores": 5131, "itect": 5132, "\u0120possibly": 5133, "\u0120appre": 5134, "\u0120operating": 5135, "\u0120princ": 5136, "\u0120alternative": 5137, "\u0120union": 5138, "\u0120votes": 5139, "\u0120vul": 5140, "ader": 5141, "\u0120professor": 5142, "\u0120tack": 5143, "\u0120Service": 5144, "\u0120increasingly": 5145, "ayer": 5146, "ruit": 5147, "\u0120apply": 5148, "\u0120fellow": 5149, "\u0120cuts": 5150, "stein": 5151, "\u0120honest": 5152, "\u0120Prime": 5153, "\u0120univers": 5154, "\u0120server": 5155, "vis": 5156, "\u0120developers": 5157, "arks": 5158, "\u0120Syrian": 5159, "\u0120apparently": 5160, "abb": 5161, "aren": 5162, "\u0120lived": 5163, "\u0120changing": 5164, "\u0120worry": 5165, "rastructure": 5166, "\u0120Carolina": 5167, "\u0120tests": 5168, "\u0120units": 5169, "\u0120rich": 5170, "\u0120Two": 5171, "cious": 5172, "icted": 5173, "From": 5174, "aded": 5175, "\u0120humans": 5176, "IM": 5177, "\u0120Foundation": 5178, "\u0120Mos": 5179, "\u0120agencies": 5180, "\u0120sounds": 5181, "ashed": 5182, "\u0120twice": 5183, "\u0120ultimately": 5184, "obby": 5185, "\u0120losing": 5186, "\u0120philos": 5187, "\u0120authority": 5188, "\u0120soldiers": 5189, "\u00e3\u0125": 5190, "\u0120animal": 5191, "gu": 5192, "\u0120Images": 5193, "\u0120settle": 5194, "\u0120ath": 5195, "\u0120schedul": 5196, "\u0120mut": 5197, "\u0120colle": 5198, "\u0120corporate": 5199, "\u0120absolutely": 5200, "\u0120healthy": 5201, "\u0120paying": 5202, "och": 5203, "\u0120equip": 5204, "iams": 5205, "\u0120developing": 5206, "\u0120sea": 5207, "\u0120Time": 5208, "\u0120closer": 5209, "\u0120Den": 5210, "\u0120innov": 5211, "related": 5212, "\u0120seeking": 5213, "\u0120regarding": 5214, "coh": 5215, "roud": 5216, "\u0120skin": 5217, "\u0120expensive": 5218, "ansion": 5219, "\u0120possibility": 5220, "\u0120beautiful": 5221, "\u0120religion": 5222, "\u0120apart": 5223, "\u0120Central": 5224, "\u0120fundament": 5225, "\u0120experts": 5226, "\u0120solar": 5227, "65": 5228, "\u0120yards": 5229, "\u0120vast": 5230, "\u0120writer": 5231, "\u0120flight": 5232, "\u0120District": 5233, "\u0120Last": 5234, "\u0120deploy": 5235, "\u0120adjust": 5236, "Of": 5237, "\u0120internal": 5238, "\u0120tast": 5239, "\u0120Under": 5240, "\u0120Lat": 5241, "31": 5242, "\u0120Peter": 5243, "apers": 5244, "\u0120imagine": 5245, "\u0120Jon": 5246, "IV": 5247, "\u0120applications": 5248, "iot": 5249, "ologies": 5250, "\u0120vision": 5251, "look": 5252, "state": 5253, "osen": 5254, "\u0120Francisco": 5255, "\u0120Toronto": 5256, "den": 5257, "\u0120sitting": 5258, "\u0120Plan": 5259, "\u0120trail": 5260, "\u0120unless": 5261, "\u0120USA": 5262, "\u0120Jes": 5263, "isted": 5264, "\u0120heat": 5265, "\u01202004": 5266, "Even": 5267, "\u0120responsibility": 5268, "\u0120capacity": 5269, "IP": 5270, "atures": 5271, "\u0120Middle": 5272, "\u0120error": 5273, "aine": 5274, "ias": 5275, "\u0120symb": 5276, "\u0120fol": 5277, "\u0120arms": 5278, "\u0120pil": 5279, "\u0120gar": 5280, "pire": 5281, "\u0120covered": 5282, "idden": 5283, "\u0120Bur": 5284, "\u0120famous": 5285, "\u0120Camp": 5286, "\u0120forms": 5287, "uzz": 5288, "ND": 5289, "\u0120university": 5290, "\u0120guarant": 5291, "\u0120tight": 5292, "\u0120presented": 5293, "ortion": 5294, "oving": 5295, "enced": 5296, "\u0120ST": 5297, "\u0120Egypt": 5298, "\u0120earn": 5299, "\u0120Put": 5300, "\u0120convention": 5301, "under": 5302, "Just": 5303, "\u0120Public": 5304, "\u0120surprise": 5305, "\u0120attorney": 5306, "\u0120elections": 5307, "\u0120estimated": 5308, "\u0120fif": 5309, "\u0120Ari": 5310, "\u0120teen": 5311, "\u0120instit": 5312, "\u0120vehicles": 5313, "rible": 5314, "\u0120Amazon": 5315, "road": 5316, "\u0120intended": 5317, "\u0120rid": 5318, "\u0120odd": 5319, "\u0120helps": 5320, "\u0120occurred": 5321, "person": 5322, "\u0120streets": 5323, "uster": 5324, "hand": 5325, "ini": 5326, "\u0120Boston": 5327, "\u0120Sol": 5328, "\u0120=>": 5329, "=\"": 5330, "\u0120Mur": 5331, "\u0120sport": 5332, "sen": 5333, "\u0120determine": 5334, "ressive": 5335, "\u0120Bitcoin": 5336, "\u0120expert": 5337, "alls": 5338, "\u0120consult": 5339, "uration": 5340, "\u0120broken": 5341, "Let": 5342, "lets": 5343, "\u0120fired": 5344, "\u0120ton": 5345, "\u0120flow": 5346, "\u0120domin": 5347, "\u0120Gal": 5348, "porary": 5349, "eder": 5350, "LE": 5351, "\u0120shall": 5352, "\u0120reserv": 5353, "Up": 5354, "\u0120troops": 5355, "ION": 5356, "\u0120Those": 5357, "\u0120hyp": 5358, "\u0120nar": 5359, "terday": 5360, "\u0120pieces": 5361, "\u0120Chief": 5362, "\u0120prepared": 5363, "\u0120Mass": 5364, "\u0120Cath": 5365, "\u0120rapid": 5366, "gl": 5367, "orage": 5368, "\u0120Jo": 5369, "\u0120located": 5370, "\u0120Social": 5371, "\u0120baby": 5372, "----------------": 5373, "\u0120conclus": 5374, "\u0120bringing": 5375, "anche": 5376, "\u0120Prot": 5377, "\u0120prove": 5378, "\u0120specifically": 5379, "\u0120Any": 5380, "\u0120potentially": 5381, "\u0120sector": 5382, "\u0120random": 5383, "\u0120jail": 5384, "OW": 5385, "\u0120selling": 5386, "\u0120governments": 5387, "\u0120Once": 5388, "\u0120scr": 5389, "Ab": 5390, "\u0120equal": 5391, "class": 5392, "war": 5393, "\u0120faster": 5394, "\u0120heav": 5395, "\u0120Spr": 5396, "\u0120boost": 5397, "useum": 5398, "vey": 5399, "\u0120clin": 5400, "\u0120proposal": 5401, "oty": 5402, "\u0120factors": 5403, "\u0120plenty": 5404, "TH": 5405, "\u0120equipment": 5406, "\u0120council": 5407, "\u0120era": 5408, "\u0120infrastructure": 5409, "Do": 5410, "\u0120stress": 5411, "phas": 5412, "\u0120stars": 5413, "\u0120Journal": 5414, "\u0120Rub": 5415, "endment": 5416, "\u0120Virginia": 5417, "\u0120breat": 5418, "\u0120prosecut": 5419, "\u0120voted": 5420, "\u0120offering": 5421, "\u0120carbon": 5422, "inent": 5423, "\u0120expressed": 5424, "\u0120vulner": 5425, "\u0120combat": 5426, "\u0120Paris": 5427, "\u0120broke": 5428, "()": 5429, "ureau": 5430, "\u0120clot": 5431, "ours": 5432, "\u0120ruling": 5433, "\u0120Federal": 5434, "\u0120retail": 5435, "\u0120Guard": 5436, "\u0120refused": 5437, "\u0120dram": 5438, "\u0120Dan": 5439, "\u0120elected": 5440, "\u0120Open": 5441, "\u0120River": 5442, "Every": 5443, "\u0120secure": 5444, "cean": 5445, "\u0120seasons": 5446, "\u0120conducted": 5447, ",'": 5448, "ht": 5449, "\u0120challenges": 5450, "\u0120remove": 5451, "isher": 5452, "\u0120Sant": 5453, "\u0120methods": 5454, "\u0120weapon": 5455, "noon": 5456, "\u0120pointed": 5457, "\u0120Island": 5458, "\u0120master": 5459, "\u0120remained": 5460, "\u0120Australian": 5461, "\u0120prime": 5462, "ENT": 5463, "\u0120trig": 5464, "\u0120positions": 5465, "\u0120Cru": 5466, "\u0120din": 5467, "\u0120Mel": 5468, "\u0120criticism": 5469, "ipping": 5470, "First": 5471, "ocking": 5472, "\u0120Medic": 5473, "\u0120Please": 5474, "rog": 5475, "onom": 5476, "IG": 5477, "\u0120sale": 5478, "olved": 5479, "\u0120Fe": 5480, "\u0120cultural": 5481, "that": 5482, "\u0120weren": 5483, "\u0120significantly": 5484, "\u0120brow": 5485, "etic": 5486, "\u0120originally": 5487, "rie": 5488, "\u0120During": 5489, "\u0120affected": 5490, "\u0120appearance": 5491, "\u0120cas": 5492, "\u0120tourn": 5493, "\u0120facing": 5494, "\u0120greatest": 5495, "\u0120finish": 5496, "\u0120Lee": 5497, "\u0120stret": 5498, "yr": 5499, "\u0120youth": 5500, "\u0120tele": 5501, "\u0120Who": 5502, "\u0120Cur": 5503, "\u0120percentage": 5504, "\u0120Photo": 5505, "col": 5506, "\u0120determined": 5507, "\u0120signs": 5508, "\u0120involve": 5509, "95": 5510, "cel": 5511, "\u00d0\u00b8": 5512, "64": 5513, "\u0120thank": 5514, "\u0120bought": 5515, "\u0120500": 5516, "lyn": 5517, "\u0120Sing": 5518, "standing": 5519, "\u0120chemical": 5520, "ashion": 5521, "\u0120shape": 5522, "\u0120vir": 5523, "\u0120regime": 5524, "\u0120grew": 5525, "pired": 5526, "\u0120remaining": 5527, "\u0120Steve": 5528, "lymp": 5529, "\u0120minimum": 5530, "\u0120Saud": 5531, "reens": 5532, "\u0120indeed": 5533, "\u0120dream": 5534, "rier": 5535, "Since": 5536, "\u0120marg": 5537, "Sp": 5538, "\u0120Both": 5539, ">>": 5540, "\u0120mode": 5541, "\u0120herself": 5542, "\u0120voting": 5543, "\u0120Color": 5544, "\u0120obviously": 5545, "\u0120Force": 5546, "\u0120reduced": 5547, "ordin": 5548, "\u0120Nov": 5549, "\u0120wood": 5550, "\u0120Rem": 5551, "\u0120recorded": 5552, "\u0120argued": 5553, "\u01201990": 5554, "\u0120revenue": 5555, "\u0120tact": 5556, "\u0120Ro": 5557, "\u0120wearing": 5558, "aling": 5559, "ighters": 5560, "\u0120leads": 5561, "edia": 5562, "\u0120hun": 5563, "\u0120politicians": 5564, "\u0120plus": 5565, "\u0120contrast": 5566, "\u0120switch": 5567, "\u0120handle": 5568, "\u0120purchase": 5569, "\u0120thr": 5570, "\u0120subs": 5571, "\u0120concent": 5572, "\u0120proced": 5573, "\u00d1\u0124": 5574, "\u0120agent": 5575, "arp": 5576, "\u0120Williams": 5577, "\u0120appreci": 5578, "\u0120experienced": 5579, "\u0120hurt": 5580, "top": 5581, "\u0120excited": 5582, "\u0120videos": 5583, "\u0120https": 5584, "cohol": 5585, "\u0120supporting": 5586, "DP": 5587, "\u0120Haw": 5588, "mm": 5589, "ownt": 5590, "\u0120Free": 5591, "\u0120surprising": 5592, "\u0120minute": 5593, "odd": 5594, "\u0120explos": 5595, "\u0120belong": 5596, "\u0120consumers": 5597, "\u0120identify": 5598, "\u0120considering": 5599, "\u0120Pac": 5600, "\u0120Conserv": 5601, "ller": 5602, "apter": 5603, "\u0120aircraft": 5604, "\u0120rent": 5605, "\u0120aid": 5606, "CL": 5607, "\u0120pulled": 5608, "gment": 5609, "\u0120basically": 5610, "\u0120differences": 5611, "ogue": 5612, "\u0120Book": 5613, "\u0120glass": 5614, "\u0120afternoon": 5615, "\u0120shift": 5616, "\u0120diss": 5617, "\u0120Rad": 5618, "\u0120depart": 5619, "\u0120ends": 5620, "essions": 5621, "\u0120turning": 5622, "\u0120bound": 5623, "\u0120films": 5624, "\u0120spring": 5625, "\u0120prospect": 5626, "ruption": 5627, "ket": 5628, "\u0120Charl": 5629, "hab": 5630, "\u0120mort": 5631, "05": 5632, "life": 5633, "\u0120treated": 5634, "\u0120accident": 5635, ",[": 5636, "01": 5637, "\u0120motiv": 5638, "\u0120listen": 5639, "\u0120seat": 5640, "\u0120Power": 5641, "uts": 5642, "\u0120combined": 5643, "\u0120construct": 5644, "Ind": 5645, "\u0120seriously": 5646, "\u0120privacy": 5647, "apping": 5648, "\u0120evening": 5649, "hered": 5650, "hy": 5651, "\u0120opportunities": 5652, "asp": 5653, "\u0120struggle": 5654, "\u0120195": 5655, "\u0120panel": 5656, "\u0120enemy": 5657, "\u0120lots": 5658, "\u0120completed": 5659, "\u0120Daily": 5660, "\u0120visual": 5661, "His": 5662, "Phone": 5663, "pet": 5664, "\u0120talked": 5665, "\u0120cart": 5666, "\u0120hopes": 5667, "oral": 5668, "\u0120passing": 5669, "\u0120id": 5670, "\u0120apps": 5671, "osite": 5672, "PD": 5673, "\u0120calcul": 5674, "Another": 5675, "\u0120widely": 5676, "ensions": 5677, "\u0120emergency": 5678, "\u0120Hol": 5679, "\u0120Show": 5680, "\u0120suit": 5681, "\u0120element": 5682, "amm": 5683, "\u0120ast": 5684, "anged": 5685, "SS": 5686, "aled": 5687, "ucks": 5688, "\u0120powers": 5689, "ato": 5690, "\u0120Rel": 5691, "\u0120BBC": 5692, "\u0120Olymp": 5693, "\u0120burn": 5694, "TV": 5695, "\u0120discl": 5696, "Pe": 5697, "\u0120plants": 5698, "\u0120flat": 5699, "\u0120Space": 5700, "\u0120liberal": 5701, "raud": 5702, "obe": 5703, "\u0120opposed": 5704, "Well": 5705, "\u0120proceed": 5706, "ompl": 5707, "\u0120copyright": 5708, "oking": 5709, "\u0120Project": 5710, "\u0120advance": 5711, "\u0120factor": 5712, "\u0120distance": 5713, "\u01202003": 5714, "ivered": 5715, "\u0120dismiss": 5716, "plom": 5717, "\u0120attempts": 5718, "\u0120tun": 5719, "\u0120Matt": 5720, "\u0120Road": 5721, "abilities": 5722, "Am": 5723, "ributed": 5724, "\u0120IN": 5725, "\u0120trouble": 5726, "unction": 5727, "\u0120hol": 5728, "\u0120collabor": 5729, "\u0120default": 5730, "sts": 5731, "idel": 5732, "\u0120Bet": 5733, "\u0120zone": 5734, "\u0120Jackson": 5735, "\u0120upgr": 5736, "rawn": 5737, "ita": 5738, "Cont": 5739, "\u0120reaction": 5740, "\u0120storm": 5741, "\u0120reporters": 5742, "\u0120Mem": 5743, "\u0120frust": 5744, "PR": 5745, "nell": 5746, "mosp": 5747, "adow": 5748, "\u0120writes": 5749, "mond": 5750, "aints": 5751, "\u0120typically": 5752, "\u0120Today": 5753, "lines": 5754, "respond": 5755, "UT": 5756, "\u0120pages": 5757, "\u0120instruct": 5758, "ternal": 5759, "eds": 5760, "\u0120reference": 5761, "\u0120package": 5762, "\u0120bodies": 5763, "zer": 5764, "\u0120matters": 5765, "free": 5766, "42": 5767, "\u0120denied": 5768, "care": 5769, "edd": 5770, "App": 5771, "\u0120quant": 5772, "\u0120disappoint": 5773, "\u0120sem": 5774, "\u0120explo": 5775, "\u0120NAS": 5776, "\u0120optim": 5777, "ache": 5778, "\u0120quiet": 5779, "\u0120entertain": 5780, "\u0120mal": 5781, "\u0120responded": 5782, "\u0120approved": 5783, "\u0120Turkey": 5784, "\u0120satisf": 5785, "aped": 5786, "\u0120broadcast": 5787, "esters": 5788, "\u0120institutions": 5789, "\u0120advert": 5790, "\u0120stands": 5791, "\u0120Director": 5792, "\u0120sets": 5793, "estival": 5794, "\u0120elimin": 5795, "isters": 5796, "razy": 5797, "\u00c3\u00a4": 5798, "Rep": 5799, "\u0120Penn": 5800, "\u0120valid": 5801, "host": 5802, "\u0120renew": 5803, "\u0120Ohio": 5804, "elly": 5805, "0000": 5806, "\u0120split": 5807, "\u0120severe": 5808, "\u0120William": 5809, "\u0120sac": 5810, "\u0120capable": 5811, "\u01202001": 5812, "\u0120//": 5813, "\u0120pitch": 5814, "abin": 5815, "aniel": 5816, "\u0120caption": 5817, "\u0120cloud": 5818, "\u0120loved": 5819, "\u0120technical": 5820, "\u0120giant": 5821, "pass": 5822, "\u0120cann": 5823, "\u0120tradition": 5824, "rant": 5825, "\u0120prompt": 5826, "\u0120bull": 5827, "\u0120confident": 5828, "uous": 5829, "\u0120confidence": 5830, "\u0120numerous": 5831, "\u0120reportedly": 5832, "\u0120Ma": 5833, "\u0120faces": 5834, "],": 5835, "writ": 5836, "\u0120weather": 5837, "\u0120fly": 5838, "\u0120transition": 5839, "rid": 5840, "\u012036": 5841, "\u0120System": 5842, "\u0120Afghanistan": 5843, "\u0120gra": 5844, "\u0120Squ": 5845, "\u0120creation": 5846, "De": 5847, "\u0120perspective": 5848, "\u0120unable": 5849, "\u0120forget": 5850, "\u0120Labour": 5851, "\u0120Yet": 5852, "43": 5853, "astern": 5854, "employ": 5855, "oken": 5856, "\u0120Media": 5857, "angers": 5858, "II": 5859, "unte": 5860, "\u0120craft": 5861, "\u0120substant": 5862, "\u0120cooper": 5863, "\u0120violent": 5864, "\u0120suffered": 5865, "ilit": 5866, "\u0120coast": 5867, "\u0120mand": 5868, "ampion": 5869, "\u0120pictures": 5870, "\u0120experiences": 5871, "\u0120approx": 5872, "abled": 5873, "\u0120route": 5874, "88": 5875, "sex": 5876, "\u0120flag": 5877, "\u0120advice": 5878, "\u0120Andrew": 5879, "usiness": 5880, "\u0120declared": 5881, "\u0120Wal": 5882, "\u0120ordered": 5883, "\u0120Human": 5884, "razil": 5885, "\u0120crimes": 5886, "\u0120coff": 5887, "Se": 5888, "\u0120proud": 5889, "ishes": 5890, "\u0120reporting": 5891, "\u0120messages": 5892, "\u0120circumst": 5893, "\u0120findings": 5894, "\u0120Lin": 5895, "Res": 5896, "\u0120eval": 5897, "ulations": 5898, "\u0120excell": 5899, "Over": 5900, "\u0120declined": 5901, "\u0120explains": 5902, "\u0120delay": 5903, "\u0120\\": 5904, "\u0120Follow": 5905, "\u0120newspaper": 5906, "ounded": 5907, "\u0120connected": 5908, "ilty": 5909, "\u0120shouldn": 5910, "evin": 5911, "oves": 5912, "\u0120ongoing": 5913, "can": 5914, "\u0120van": 5915, "dule": 5916, "\u0120movies": 5917, "\u0120picked": 5918, "ionally": 5919, "resents": 5920, "77": 5921, "\u0120admitted": 5922, "\u0120delivered": 5923, "During": 5924, "\u0120guns": 5925, "\u0120ML": 5926, "\u0120Scot": 5927, "\u0120walking": 5928, "\u0120agents": 5929, "called": 5930, "\u0120prin": 5931, "tion": 5932, "\u0120editor": 5933, "\u0120thoughts": 5934, "\u0120married": 5935, "\u0120Tra": 5936, "\u0120auth": 5937, "\u0120emails": 5938, "\u0120appropriate": 5939, "\u0120emphas": 5940, "uations": 5941, "\u0120edge": 5942, "\u0120architect": 5943, "\u0120Grand": 5944, "\u0120leaves": 5945, "\u0120updates": 5946, "\u0120accompl": 5947, "OD": 5948, "\u0120gather": 5949, "\u0120Muslims": 5950, "\u0120forg": 5951, "ansas": 5952, "\u0120Wood": 5953, "\u0120quarterback": 5954, "\u0120session": 5955, "ooth": 5956, "41": 5957, "\u0120Techn": 5958, "\u0120pool": 5959, "\u0120Science": 5960, "cos": 5961, "\u0120injured": 5962, "arn": 5963, "\u0120publicly": 5964, "ellow": 5965, "\u0120Sov": 5966, "\u0120statements": 5967, "\u0120perman": 5968, "\u0120legit": 5969, "arl": 5970, "nergy": 5971, "MA": 5972, "\u0120confirm": 5973, "\u0120Lake": 5974, "\u0120ourselves": 5975, "Other": 5976, "\u0120realize": 5977, "\u0120rot": 5978, "\u0120drivers": 5979, "\u0120Av": 5980, "\u0120Dou": 5981, "TA": 5982, "mates": 5983, ",\u00e2\u0122\u013b": 5984, "\u0120armed": 5985, "essor": 5986, "\u0120dial": 5987, "cons": 5988, "\u0120lawyer": 5989, "ourney": 5990, "\u0120rail": 5991, "\u0120readers": 5992, "reland": 5993, "\u0120sad": 5994, "\u0120contains": 5995, "\u0120argue": 5996, "\u0120Rev": 5997, "\u0120talent": 5998, "\u0120filled": 5999, "\u0120Sum": 6000, "\u0120allegations": 6001, "\u0120activists": 6002, "\u0120Christmas": 6003, "\u0120dynam": 6004, "\u01201980": 6005, "\u0120Michigan": 6006, "date": 6007, "\u0120Back": 6008, "\u0120Ron": 6009, "\u0120crack": 6010, "\u0120transform": 6011, "Tube": 6012, "\u0120Ill": 6013, "\u0120buildings": 6014, "\u0120Read": 6015, "long": 6016, "\u0120wear": 6017, "Many": 6018, "\u0120terrorist": 6019, "\u0120sam": 6020, "\u0120tree": 6021, "\u0120exercise": 6022, "enda": 6023, "\u0120label": 6024, "\u0120effectively": 6025, "Oh": 6026, "\u0120practices": 6027, "ala": 6028, "\u0120subsequ": 6029, "\u0120Jul": 6030, "\u0120Sher": 6031, "uls": 6032, "\u0120flo": 6033, "TS": 6034, "\u0120fish": 6035, "ette": 6036, "enture": 6037, "\u0120shop": 6038, "\u0120examples": 6039, "\u0120Hy": 6040, "\u0120patient": 6041, "\u0120Gen": 6042, "\u0120Seattle": 6043, "\u0120objects": 6044, "\u0120tech": 6045, "\u0120See": 6046, "\u0120secretary": 6047, "asure": 6048, "\u0120rain": 6049, "\u0120missed": 6050, "\u0120causes": 6051, "illy": 6052, "rum": 6053, "\u0120debut": 6054, "\u0120Rod": 6055, "gia": 6056, "\u0120essentially": 6057, "66": 6058, "amin": 6059, "\u0120moral": 6060, "orders": 6061, "ador": 6062, "word": 6063, "acter": 6064, "\u0120Work": 6065, "def": 6066, "arters": 6067, "\u0120Ukraine": 6068, "\u0120centre": 6069, "Follow": 6070, "\u0120Vict": 6071, "bur": 6072, "\u0120Stan": 6073, "\u0120ID": 6074, "icing": 6075, "\u0120injuries": 6076, "\u0120Phot": 6077, "\u0120motor": 6078, "\u0120iPhone": 6079, "\u0120artist": 6080, "\u0120client": 6081, "\u0120bond": 6082, "\u0120thinks": 6083, "iat": 6084, "orse": 6085, "ouston": 6086, "\u0120pure": 6087, "\u0120hell": 6088, "Although": 6089, "\u0120Saudi": 6090, "\u0120facts": 6091, "\u0124\u00ac": 6092, "\u0120desire": 6093, "agers": 6094, "aza": 6095, "\u0120ske": 6096, "orry": 6097, "\u0120linked": 6098, "\u00c3\u0143": 6099, "\u0120governor": 6100, "\u0120materials": 6101, "\u0120performed": 6102, "Spe": 6103, "\u0120franch": 6104, "esome": 6105, "\u0120suc": 6106, "\u0120philosoph": 6107, "\u0120initially": 6108, "iest": 6109, "\u0120Sign": 6110, "\u0120necessarily": 6111, "\u0120Bat": 6112, "\u0120Fer": 6113, "\u0120expansion": 6114, "\u0120scheduled": 6115, "water": 6116, "ERS": 6117, "\u0120warned": 6118, "\u0120diplom": 6119, "\u0120advanced": 6120, "\u0120ing": 6121, "\u0120explan": 6122, "\u0120vari": 6123, "\u0120everybody": 6124, "\u0120joint": 6125, "\u0120decre": 6126, "\u0120resolution": 6127, "\u0120increases": 6128, "enger": 6129, "Yes": 6130, "\u0120accepted": 6131, "\u0120incor": 6132, "\u0120myster": 6133, "\u0120faced": 6134, "\u0120bare": 6135, "illance": 6136, "\u0120Mount": 6137, "\u0120announcement": 6138, "\u0120follows": 6139, "\u0120nations": 6140, "\u0120playoff": 6141, "\u0120Life": 6142, "\u0120abandon": 6143, "\u0120Second": 6144, "\u0120radical": 6145, "\u0120athlet": 6146, "\u0120neither": 6147, "\u0120yesterday": 6148, "gent": 6149, "\u0120datab": 6150, "\u0120nearby": 6151, "\u0120distribution": 6152, "otic": 6153, "\u0120applied": 6154, "irty": 6155, "\u0120magazine": 6156, "Most": 6157, "athan": 6158, "rich": 6159, "\u0120mir": 6160, "\u0120consequences": 6161, "\u0120doctor": 6162, "\u0120listed": 6163, "\u0120fort": 6164, "uy": 6165, "\u0120Columb": 6166, "\u0120atmosp": 6167, "American": 6168, "\u0120surprised": 6169, "\u0120offense": 6170, "Qu": 6171, "itors": 6172, "\u0120CNN": 6173, "\u0120RE": 6174, "\u0120spons": 6175, "\u0120begins": 6176, "\u0120Week": 6177, "\u0120threats": 6178, "sembly": 6179, "\u0120represents": 6180, "\u0120Jews": 6181, "\u0120GM": 6182, "\u0120Aff": 6183, "\u0120enh": 6184, "\u0120moves": 6185, "\u0120remark": 6186, "\u0120TO": 6187, "\u0120pra": 6188, "\u0120songs": 6189, "kay": 6190, "\u0120chart": 6191, "\u0120behavi": 6192, "omin": 6193, "\u0120ride": 6194, "\u0120adds": 6195, "\u0120withd": 6196, "Can": 6197, "\u00c3\u0124": 6198, "\u0120improved": 6199, "\u0120phen": 6200, "\u0120Blue": 6201, "\u0120bot": 6202, "\u0120warm": 6203, "\u0120af": 6204, "\u0120alcohol": 6205, "rip": 6206, "\u0120AT": 6207, "\u0120output": 6208, "law": 6209, "\u0120flood": 6210, "\u0120Develop": 6211, "\u0120Hen": 6212, "whel": 6213, "edy": 6214, "\u0120shots": 6215, "\u0120fill": 6216, "\u0120Vol": 6217, "\u0120alt": 6218, "\u0120stood": 6219, "\u0120brings": 6220, "\u0120pushed": 6221, "\u0120guilty": 6222, "\u0120Romney": 6223, "\u0120Kim": 6224, "\u0120subscrib": 6225, "85": 6226, "\u0120entry": 6227, "ocratic": 6228, "\u0120Brazil": 6229, "\u0120democracy": 6230, "\u0120boys": 6231, "\u012033": 6232, "\u0120row": 6233, "\u0120Swed": 6234, "\u0120config": 6235, "\u0120restaurant": 6236, "\u0120NBA": 6237, "\u0120lawsuit": 6238, "\u0120Dev": 6239, "\u0120Ireland": 6240, "acle": 6241, "\u0120manufacture": 6242, "\u0120receiving": 6243, "\u0120rein": 6244, "\u0120Barack": 6245, "Then": 6246, "\u0120trib": 6247, "\u0120totally": 6248, "\u0120Only": 6249, "\u0120discussed": 6250, "\u0120sought": 6251, "\u0120rising": 6252, "\u0120entered": 6253, "\u0120ISIS": 6254, "\u0120Board": 6255, "\u0120consistent": 6256, "\u0120historical": 6257, "twitter": 6258, "ideo": 6259, "\u0120storage": 6260, "\u0120correspond": 6261, "\u0120plane": 6262, "\u0120combination": 6263, "\u0120scored": 6264, "\u0120input": 6265, "\u0120300": 6266, "\u0120symbol": 6267, "\u0120bright": 6268, "\u0120button": 6269, "irds": 6270, "\u0120succeed": 6271, "stood": 6272, "\u0120creative": 6273, "\u0120investors": 6274, "\u0120square": 6275, "\u0120articles": 6276, "\u01202002": 6277, "\u0120island": 6278, "mes": 6279, "\u0120deaths": 6280, "\u0120functions": 6281, "\u0120networks": 6282, "\u0120classes": 6283, "\u0120unlikely": 6284, "alty": 6285, "\u0120heads": 6286, "ician": 6287, "\u0120boss": 6288, "\u0120native": 6289, "icious": 6290, "\u0120lie": 6291, "\u0120sav": 6292, "\u0120Lib": 6293, "\u0120roughly": 6294, "\u0120consumer": 6295, "\u0120Str": 6296, "\u0120Whe": 6297, "\u0120Walk": 6298, "\u0120Prem": 6299, "fortunately": 6300, "\u0120Ms": 6301, "\u0120string": 6302, "\u0120Maybe": 6303, "\u0120heavily": 6304, "\u0120Another": 6305, "\u0120fairly": 6306, "\u0120temperature": 6307, "arden": 6308, "\u0120kit": 6309, "\u0120existence": 6310, "\u0120Its": 6311, "\u0120Asia": 6312, "\u0120contest": 6313, "Add": 6314, "\u0120plot": 6315, "issions": 6316, "dis": 6317, "\u0120Cub": 6318, "\u0120resident": 6319, "usal": 6320, "\u0120targets": 6321, "\u0120Bob": 6322, "\u0120resc": 6323, "\u0120Korean": 6324, "ican": 6325, "duc": 6326, "\u0120lock": 6327, "\u0120younger": 6328, "Man": 6329, "',": 6330, "\u0120colleagues": 6331, "PU": 6332, "\u0120library": 6333, "\u00c3\u00b6": 6334, "\u0120rally": 6335, "\u0120parliament": 6336, "\u0120protests": 6337, "\u0120anywhere": 6338, "oked": 6339, "\u0120Sports": 6340, "\u0120Sky": 6341, "\u0120bike": 6342, "zona": 6343, "\u0120breaking": 6344, "ii": 6345, "\u0120grab": 6346, "\u0120sym": 6347, "\u0120stores": 6348, "\u0120expression": 6349, "\u0120waste": 6350, "\u0120chain": 6351, "\u0120blow": 6352, "\u0120warning": 6353, "\u0120importance": 6354, "\u0120defined": 6355, "\u0120buying": 6356, "\u0120manage": 6357, "\u0120prohib": 6358, "\u0120classic": 6359, "\u0120cere": 6360, "\u0120snow": 6361, "\u0120adults": 6362, "\u0120illust": 6363, "\u0120Each": 6364, "See": 6365, "\u0120marketing": 6366, "Ob": 6367, "\u0120links": 6368, "\u00c3\u00b3": 6369, "iques": 6370, "\u0120shif": 6371, "born": 6372, "andal": 6373, "\u0120Club": 6374, "\u0120tow": 6375, "\u0120Hist": 6376, "\u0120fraud": 6377, "OC": 6378, "\u0120facility": 6379, "ollywood": 6380, "erences": 6381, "\u0120hardware": 6382, "\u0120schol": 6383, "\u0120allegedly": 6384, "\u012037": 6385, "\u0120regulations": 6386, "pret": 6387, "\u0120doctors": 6388, "\u0120bon": 6389, "\u0120Colorado": 6390, "\u0120currency": 6391, "\u0120household": 6392, "\u0120replaced": 6393, "agan": 6394, "\u0120essential": 6395, "opy": 6396, "\u0120empt": 6397, "onna": 6398, "\u0120Ram": 6399, "\u0120somewhat": 6400, "\u0120Div": 6401, "press": 6402, "86": 6403, "\u0120nav": 6404, "\u0120favour": 6405, "power": 6406, "\u0120promise": 6407, "\u0120DC": 6408, "\u0120Boy": 6409, "\u0120laugh": 6410, "ena": 6411, "Pol": 6412, "\u0120Rights": 6413, "\u0120holds": 6414, "\u0120opposite": 6415, "ocket": 6416, "\u00d1\u0123": 6417, "\u0120moments": 6418, "west": 6419, "\u0120hat": 6420, "tering": 6421, "\u0120opponent": 6422, "\u0120bug": 6423, "\u0120Far": 6424, "cho": 6425, "\u0120campus": 6426, "\u0120acts": 6427, "\u0120rum": 6428, "etroit": 6429, "\u0120versions": 6430, "\u0120motion": 6431, "\u0120metal": 6432, "hips": 6433, "\u0120evolution": 6434, "ometimes": 6435, "\u0120vice": 6436, "anish": 6437, "\u0120relevant": 6438, "\u0120sees": 6439, "\u0120Image": 6440, "\u0120bag": 6441, "\u0120industrial": 6442, "\u0120zero": 6443, "IR": 6444, "\u0120sick": 6445, "\u0120downt": 6446, "oma": 6447, "\u0120closely": 6448, "\u0120Ann": 6449, "hetic": 6450, "\u0120emotional": 6451, "chen": 6452, "game": 6453, "IF": 6454, "\u0120YouTube": 6455, "\u0120Year": 6456, "va": 6457, "\u0120fewer": 6458, "\u0120division": 6459, "olve": 6460, "\u0120adm": 6461, "\u0120harder": 6462, "\u0120customer": 6463, "\u0120hoping": 6464, "ologist": 6465, "\u0120tom": 6466, "\u0120Brook": 6467, "Donald": 6468, "En": 6469, "\u0120Valley": 6470, "\u0120hur": 6471, "\u0120Gra": 6472, "\u0120mechanism": 6473, "ittle": 6474, "ml": 6475, "\u0120Houston": 6476, "\u0120Elect": 6477, "inem": 6478, "\u0120returns": 6479, "NC": 6480, "atell": 6481, "\u0120volunte": 6482, "\u0120participants": 6483, "\u0120extent": 6484, "\u0120intention": 6485, "po": 6486, "alian": 6487, "esc": 6488, "ellect": 6489, "\u0120excellent": 6490, "\u0120Soviet": 6491, "\u0120acknowled": 6492, "\u0120syn": 6493, "ulous": 6494, "oming": 6495, "\u0120Mot": 6496, "\u0120batt": 6497, "\u0120Games": 6498, "\u0120squad": 6499, "greg": 6500, "\u0120circumstances": 6501, "pan": 6502, "\u0120fashion": 6503, "\u0120isol": 6504, "\u00c3\u00bc": 6505, "otal": 6506, "\u0120immediate": 6507, "\u0120Eric": 6508, "\u0120suffering": 6509, "\u0120Watch": 6510, "str": 6511, "\u0120lies": 6512, "\u0120tiny": 6513, "\u0120authors": 6514, "\u012038": 6515, "\u0120grown": 6516, "\u0120Gar": 6517, "iger": 6518, "efully": 6519, "\u0120immigrants": 6520, "\u00c3\u0125": 6521, "print": 6522, "ora": 6523, "\u0120kinds": 6524, "utch": 6525, "\u012049": 6526, "\u0120Die": 6527, "\u0120cheap": 6528, "\u0120mine": 6529, "\u0120detailed": 6530, "ordan": 6531, "\u0120Hel": 6532, "name": 6533, "\u0120featured": 6534, "\u0120Wik": 6535, "\u0120Er": 6536, "\u0120Sar": 6537, "ayers": 6538, "\u0120meat": 6539, "\u0120unus": 6540, "\u0120Aut": 6541, "\u0120competitive": 6542, "\u0120describe": 6543, "\u0120formed": 6544, "\u0120Home": 6545, "\u0120IP": 6546, "friend": 6547, "nic": 6548, "certain": 6549, "\u0120carrying": 6550, "\u0120tournament": 6551, "\u0120termin": 6552, "\u0120trick": 6553, "\u0120relationships": 6554, "\u0120fundamental": 6555, "kel": 6556, "\u0120wave": 6557, "\u0120cycle": 6558, "obb": 6559, "\u0120crazy": 6560, "\u0120Cy": 6561, "\u0120signing": 6562, "\u0120Way": 6563, "\u0120guide": 6564, "\u0120wins": 6565, "\u0120Catholic": 6566, "\u0120earned": 6567, "08": 6568, "\u0120decline": 6569, "\u0120regional": 6570, "nam": 6571, "ensus": 6572, "style": 6573, "\u0120embr": 6574, "\u0120strange": 6575, "\u0120Palestinian": 6576, "\u0120Jesus": 6577, "\u0120Long": 6578, "\u0120ancient": 6579, "\u0120frequently": 6580, "06": 6581, "\u0120acting": 6582, "\u0120Putin": 6583, "\u0120manner": 6584, "\u0120efficient": 6585, "rome": 6586, "\u0120pushing": 6587, "\u0120CIA": 6588, "\u0120comfortable": 6589, "\u0120Card": 6590, "\u0120pip": 6591, "ORE": 6592, "Per": 6593, "\u0120sharing": 6594, "\u0120wire": 6595, "\u0120skill": 6596, "\u0120Econom": 6597, "ockey": 6598, "chers": 6599, "\u0120instru": 6600, "\u0120Ell": 6601, "\u0120owned": 6602, "bar": 6603, "\u0120commitment": 6604, "\u0120alongside": 6605, "\u0120OF": 6606, "uated": 6607, "anes": 6608, "\u0120Lord": 6609, "09": 6610, "\u0120Davis": 6611, "rison": 6612, "\u0120controversial": 6613, "\u0120artists": 6614, "\u0120referred": 6615, "weight": 6616, "\u0120egg": 6617, "\u0120mouth": 6618, "\u0120repeatedly": 6619, "\u012048": 6620, "\u0120Top": 6621, "\u00ef\u00bf": 6622, "\u012034": 6623, "FP": 6624, "awa": 6625, "\u0120attempted": 6626, "\u0120femin": 6627, "umber": 6628, "\u0120updated": 6629, "foot": 6630, "\u0120cert": 6631, "ua": 6632, "\u0120pregn": 6633, "\u0120Old": 6634, "\u0120schedule": 6635, "vin": 6636, "xy": 6637, "\u0120PS": 6638, "amily": 6639, "adel": 6640, "\u0120dedicated": 6641, "\u00d0\u00bd": 6642, "\u0120AL": 6643, "\u0120sentence": 6644, "\u0120upcoming": 6645, "\u0120Right": 6646, "\u0120NY": 6647, "\u0120Down": 6648, "\u0120Di": 6649, "\u0120column": 6650, "hus": 6651, "\u0120depth": 6652, "\u0120pled": 6653, "\u0120virtual": 6654, "uable": 6655, "\u0120journey": 6656, "\u0120struck": 6657, "\u00d1\u0122": 6658, "\u0120desk": 6659, "\u0120studio": 6660, "\u0120realized": 6661, "\u0120Energy": 6662, "Despite": 6663, "ceived": 6664, "%)": 6665, "ographic": 6666, "ko": 6667, "ugh": 6668, "\u0120medic": 6669, "DS": 6670, "\u0120serving": 6671, "iami": 6672, "\u0120walked": 6673, "rive": 6674, "iveness": 6675, "\u0120king": 6676, "\u0120ring": 6677, "\u0120reput": 6678, "you": 6679, "\u0120urban": 6680, "phy": 6681, "07": 6682, "\u0120Cle": 6683, "\u0120Charles": 6684, "\u0120Wild": 6685, "\u0120targeted": 6686, "\u0120channel": 6687, "\u0120assets": 6688, "luding": 6689, "\u0120tort": 6690, "\u0120inspired": 6691, "\u0120hotel": 6692, "\u0120Arizona": 6693, "\u0120posts": 6694, "\u0120newslet": 6695, "Like": 6696, "Two": 6697, "\u0120Supp": 6698, "\u0120universe": 6699, "\u0120agenda": 6700, "\u0120causing": 6701, "\u0120watched": 6702, "\u0120suicide": 6703, "\u0120stream": 6704, "\u0120overwhel": 6705, "\u0120Py": 6706, "\u0120usual": 6707, "\u0120surveillance": 6708, "\u0120Men": 6709, "\u0120intent": 6710, "sole": 6711, "People": 6712, "\u0120liqu": 6713, "\u0120sister": 6714, "\u0120opponents": 6715, "\u0120chairman": 6716, "\u0120du": 6717, "\u0120Wars": 6718, "\u0120Cruz": 6719, "\u0120mainstream": 6720, "gor": 6721, "bel": 6722, "\u0120latter": 6723, "\u0120hall": 6724, "\u0120surrounding": 6725, "\u0120folks": 6726, "\u0120knowing": 6727, "\u0120orders": 6728, "\u0120Inf": 6729, "\u0120remote": 6730, "\u012075": 6731, "\u0120sand": 6732, "\u0120literally": 6733, "\u0120Java": 6734, "\u0120observed": 6735, "\u0120Again": 6736, "\u0120subsid": 6737, "Fr": 6738, "\u0120Defense": 6739, "\u0120infl": 6740, "\u0120approval": 6741, "acc": 6742, "\u0120Van": 6743, "iments": 6744, "\u0120basket": 6745, "rence": 6746, "burg": 6747, "\u0120teachers": 6748, "azi": 6749, "avor": 6750, "izz": 6751, "\u0120winter": 6752, "iciency": 6753, "alle": 6754, "\u0120exciting": 6755, "aze": 6756, "iro": 6757, "aylor": 6758, "\u0120Tal": 6759, "\u0120format": 6760, "boy": 6761, "\u0120congress": 6762, "\u0120protected": 6763, "ati": 6764, "\u0120noticed": 6765, "\u0120simpl": 6766, "\u0120dealing": 6767, "\u0120Young": 6768, "rations": 6769, "\u0120Child": 6770, "\u0120precise": 6771, "67": 6772, "xual": 6773, "\u0120deeply": 6774, "ipl": 6775, "\u0120communication": 6776, "\u0120gang": 6777, "\u0120sending": 6778, "\u0120forth": 6779, "\u0120Jr": 6780, "\u0120fasc": 6781, "\u0120battery": 6782, "\u0120wal": 6783, "mun": 6784, "\u0120sky": 6785, "\u0120narr": 6786, "\u0120fixed": 6787, "post": 6788, "abis": 6789, "\u0120aside": 6790, "\u0120requirements": 6791, "Int": 6792, "\u0120properties": 6793, "rors": 6794, "\u0120alive": 6795, "\u0120narrow": 6796, "\u0120wake": 6797, "allas": 6798, "\u0120passion": 6799, "\u0120Arch": 6800, "onymous": 6801, "\u0120eating": 6802, "Or": 6803, "ensity": 6804, "\u0120mistake": 6805, "woman": 6806, "\u0120explore": 6807, "\u0120coffee": 6808, "\u0120Pan": 6809, "\u01201970": 6810, "\u0120rape": 6811, "\u0120volume": 6812, "\u0120promised": 6813, "\u0120diet": 6814, "acking": 6815, "\u0120risks": 6816, "\u0120exhib": 6817, "\u0120Polit": 6818, "\u0120Fort": 6819, "\u0120sweet": 6820, "May": 6821, "\u00e2\u0122\u013b.": 6822, "\u0120Enter": 6823, "\u0120Wat": 6824, "\u0120neut": 6825, "\u0120involving": 6826, "\u0120wage": 6827, "\u0120selection": 6828, "\u0120Max": 6829, "\u0120tested": 6830, "ether": 6831, "\u0120flu": 6832, "ulture": 6833, "\u0120defeat": 6834, "\u0120northern": 6835, "\u0120reward": 6836, "\u0120welcome": 6837, "\u0120Cast": 6838, "\u0120extended": 6839, "\u0120puts": 6840, "\u0120territory": 6841, "\u0120phenomen": 6842, "\u0120unemploy": 6843, "\u0120refugees": 6844, "\u0120sample": 6845, "\u0120height": 6846, "\u0120approximately": 6847, "\u0120Kevin": 6848, "59": 6849, "\u0120blame": 6850, "\u0120Brad": 6851, "\u0120anyway": 6852, "ums": 6853, "\u0120Detroit": 6854, "\u0120destroyed": 6855, "obile": 6856, "ta": 6857, "\u0120impressive": 6858, "\u0120Stephen": 6859, "asks": 6860, "\u0120god": 6861, "\u0120proof": 6862, "\u0120gap": 6863, "\u0120dry": 6864, "\u00ef\u00bf\u00bd": 6865, "\u0120crash": 6866, "\u0120unknown": 6867, "\u0120locations": 6868, "04": 6869, "igg": 6870, "\u0120selected": 6871, "apse": 6872, "\u0120west": 6873, "anges": 6874, "gery": 6875, "stone": 6876, "\u0120Fil": 6877, "\u0120attacked": 6878, "\u0120maximum": 6879, "\u0120Miller": 6880, "\u0120Wilson": 6881, "\u0120Tit": 6882, "\u0120promote": 6883, "\u0120shel": 6884, "aser": 6885, "\u0120merely": 6886, "\u0120franchise": 6887, "arry": 6888, "lv": 6889, "\u0120requests": 6890, "\u0120sho": 6891, "\u0120retire": 6892, "\u0120suddenly": 6893, "\u0120slowly": 6894, "\u0120protesters": 6895, "\u0120disag": 6896, "dro": 6897, "\u0120teacher": 6898, "ixt": 6899, "\u0120typical": 6900, "ogan": 6901, "\u0120Women": 6902, "\u0120Ins": 6903, "ingu": 6904, "\u0120conver": 6905, "list": 6906, "\u0120chose": 6907, "\u0120Camer": 6908, "\u0120Class": 6909, "\u0120Lu": 6910, "\u0120matches": 6911, "\u0120prote": 6912, "\u0120license": 6913, "\u0120properly": 6914, "\u0120assume": 6915, "oration": 6916, "\u0120discover": 6917, "03": 6918, "\u0120wid": 6919, "\u0120PR": 6920, "\u0120Mic": 6921, "Rel": 6922, "\u0120worried": 6923, "\u0120moder": 6924, "fire": 6925, "\u0120abortion": 6926, "owered": 6927, "\u0120allies": 6928, "ao": 6929, "\u0120oblig": 6930, "\u0120terrorism": 6931, "02": 6932, "\u0120supports": 6933, "\u0120\u00ce": 6934, "uilding": 6935, "\u00c3\u0125\u00c3\u0124": 6936, "inson": 6937, "verty": 6938, "\u0120arguments": 6939, "\u0120adapt": 6940, "\u0120theme": 6941, "\u0120confront": 6942, "\u0120facilities": 6943, "\u0120sustain": 6944, "gender": 6945, "\u0120east": 6946, "\u0120pal": 6947, "\u0120recognize": 6948, "igure": 6949, "\u0120fuck": 6950, "\u00c3\u0125\u00c3\u0124\u00c3\u0125\u00c3\u0124": 6951, "lies": 6952, "\u0120equival": 6953, "mo": 6954, "\u0120obtained": 6955, "\u0120poverty": 6956, "\u0120rub": 6957, "\u0120Italy": 6958, "\u0120nomine": 6959, "\u0120deals": 6960, "\u0120fees": 6961, "alo": 6962, "itarian": 6963, "osis": 6964, "\u0120Hollywood": 6965, "\u0120understood": 6966, "\u0120controlled": 6967, "VER": 6968, "\u0120Best": 6969, "\u0120Dam": 6970, "\u0120topic": 6971, "\u0120critics": 6972, "\u0120Society": 6973, "\u0120Agency": 6974, "axy": 6975, "\u0120Ford": 6976, "\u0120sole": 6977, "\u0120Jersey": 6978, "arity": 6979, "\u0120village": 6980, "\u0120diagn": 6981, "\u0120Administ": 6982, "raid": 6983, "68": 6984, "\u0120likes": 6985, "celer": 6986, "han": 6987, "sters": 6988, "\u0120Four": 6989, "\u0120evil": 6990, "Te": 6991, "\u0120punish": 6992, "\u0120dress": 6993, "cript": 6994, "\u0120ped": 6995, "\u0120Georgia": 6996, "\u0120bunch": 6997, "\u0120Company": 6998, "\u0120journalists": 6999, "John": 7000, "\u0120exposed": 7001, "\u0120regions": 7002, "redit": 7003, "ocation": 7004, "\u0120scheme": 7005, "\u0120communications": 7006, "\u0120transp": 7007, "\u0120stim": 7008, "\u0120limits": 7009, "\u0120somehow": 7010, "\u0120strongly": 7011, "\u0120honor": 7012, "\u0120drag": 7013, "\u0120resistance": 7014, "lls": 7015, "aire": 7016, "aug": 7017, "\u0120champion": 7018, "\u0120Labor": 7019, "\u0120constant": 7020, "\u0120phase": 7021, "\u0120NASA": 7022, "asts": 7023, "\u0120Carl": 7024, "pool": 7025, "\u0120profit": 7026, "\u0120truck": 7027, "\u0120condem": 7028, "\u0120escape": 7029, "\u0120personally": 7030, "\u0120Night": 7031, "\u0120Dun": 7032, "rimination": 7033, "\u0120Land": 7034, "\u0120bid": 7035, "\u0120NHL": 7036, "\u0120Stand": 7037, "\u0120vacc": 7038, "\u0120deck": 7039, "CA": 7040, "nesota": 7041, "iform": 7042, "\u0120falling": 7043, "GBT": 7044, "\u0120Network": 7045, "\u0120somewhere": 7046, "ems": 7047, "cers": 7048, "\u0120employee": 7049, "\u0120harass": 7050, "ads": 7051, "\u0120bear": 7052, "\u0120CD": 7053, "iner": 7054, "\u0120comparison": 7055, "orted": 7056, "ciples": 7057, "\u0120polls": 7058, "owa": 7059, "\u0120inqu": 7060, "\u0120Love": 7061, "pected": 7062, "\u0120southern": 7063, "oric": 7064, "\u0120decent": 7065, "cow": 7066, "\u0120Spanish": 7067, "\u0120encourage": 7068, "\u0120emissions": 7069, "\u012039": 7070, "\u0120Kn": 7071, "\u0120View": 7072, "enders": 7073, "\u0120empty": 7074, "\u0120Miami": 7075, "\u0120hits": 7076, "oster": 7077, "\u0120Cam": 7078, "\u0120definition": 7079, "57": 7080, "\u0120pic": 7081, "wan": 7082, "\u0120directed": 7083, "pes": 7084, "\u0120flex": 7085, "zens": 7086, "\u0120Ok": 7087, "\u0120meetings": 7088, "\u0120End": 7089, "\u0120Bell": 7090, "\u00d0\u00be\u00d0": 7091, "\u0120comprom": 7092, "\u0120winner": 7093, "intend": 7094, "icken": 7095, "\u0120gotten": 7096, "\u0120Daniel": 7097, "\u0120Turk": 7098, "\u0120electricity": 7099, "aun": 7100, "\u0120chosen": 7101, "\u0120officially": 7102, "\u0120bench": 7103, "\u0120stretch": 7104, "\u0120database": 7105, "Com": 7106, "\u0120Despite": 7107, "\u0120intellect": 7108, "\u0120spin": 7109, "igation": 7110, "\u0120stronger": 7111, "\u0120deleg": 7112, "\u0120purposes": 7113, "\u0120DNA": 7114, "\u0120cutting": 7115, "\u0120Turn": 7116, "\u0120fold": 7117, "rary": 7118, "\u0120extensive": 7119, "\u0120amounts": 7120, "\u0120desper": 7121, "\u0120trees": 7122, "\u0120anx": 7123, "\u0120ideal": 7124, "\u0120Asian": 7125, "\u0120thread": 7126, "\u0120fifth": 7127, "\u012a\u0134": 7128, "UR": 7129, "\u0120goods": 7130, "\u0120colon": 7131, "\u0120developer": 7132, "\u0120claiming": 7133, "unning": 7134, "Any": 7135, "\u0120retain": 7136, "\u0120soul": 7137, "\u0120captured": 7138, "\u0120Though": 7139, "\u0120finds": 7140, "\u0120driven": 7141, "\u0120payments": 7142, "asters": 7143, "\u0120Jordan": 7144, "ras": 7145, "CS": 7146, "\u0120ties": 7147, "\u0120reasonable": 7148, "\u0120dogs": 7149, "\u00e2\u0138": 7150, "\u0120somebody": 7151, "\u0120ending": 7152, "\u0120Nations": 7153, "\u0120choices": 7154, "\u0120ble": 7155, "\u0120seats": 7156, "\u0120Services": 7157, "\u0120Thank": 7158, "\u0120pod": 7159, "\u0120engage": 7160, "\u0120drawn": 7161, "\u0120sight": 7162, "CE": 7163, "\u0120param": 7164, "\u0120Dar": 7165, "\u0120threatened": 7166, "\u0120ruled": 7167, "eping": 7168, "\u0120Attorney": 7169, "\u0120Irish": 7170, "ura": 7171, "\u0120Sea": 7172, "\u0120trading": 7173, "owed": 7174, "\u0120primarily": 7175, "\u0120aspects": 7176, "\u0120fighters": 7177, "ML": 7178, "\u0120answers": 7179, "\u0120perfectly": 7180, "irms": 7181, "\u0120Academ": 7182, "\u0120incl": 7183, "\u0120rival": 7184, "\u0120parking": 7185, "\u0120rejected": 7186, "\u0120Gall": 7187, "\u0120constantly": 7188, "\u0120Hun": 7189, "fast": 7190, "\u0120payment": 7191, "\u0120Cat": 7192, "\u0120distinct": 7193, "\u0120flying": 7194, "\u0120rig": 7195, "\u0120technologies": 7196, "\u0120Real": 7197, "</": 7198, "\u0120components": 7199, "Police": 7200, "\u0120admit": 7201, "\u0120Scotland": 7202, "\u0120elsewhere": 7203, "\u0120Dark": 7204, "\u0120constit": 7205, "\u0120tur": 7206, "\u0120anymore": 7207, "lder": 7208, "\u0120icon": 7209, "\u0120fields": 7210, "\u0120estimates": 7211, "EW": 7212, "sea": 7213, "\u0120solutions": 7214, "\u0120resulting": 7215, "78": 7216, "\u0120Bru": 7217, "\u0120awesome": 7218, "\u0120encoun": 7219, "\u0120province": 7220, "mod": 7221, "\u0120worldwide": 7222, "\u0120actor": 7223, "\u0120regularly": 7224, "\u0120Moore": 7225, "\u0120courts": 7226, "\u0120narrative": 7227, "\u0120Ut": 7228, "Once": 7229, "\u0120boot": 7230, "\u0120enemies": 7231, "\u0120mixed": 7232, "regon": 7233, "\u0120OS": 7234, "\u0120Disney": 7235, "sm": 7236, "icer": 7237, "\u0120houses": 7238, "\u0120nobody": 7239, "\u0120Sk": 7240, "inations": 7241, "\u0120controls": 7242, "\u0120Water": 7243, "\u0120letters": 7244, "ez": 7245, "apes": 7246, "agram": 7247, "iana": 7248, "imp": 7249, "\u012042": 7250, "\u0120murd": 7251, "\u0120mayor": 7252, "\u0120loan": 7253, "\u0120outcome": 7254, "\u0120MS": 7255, "\u0120contem": 7256, "sell": 7257, "Sec": 7258, "vy": 7259, "ship": 7260, "\u0120Light": 7261, "onic": 7262, "isan": 7263, "\u0120apartment": 7264, "\u0120Steven": 7265, "\u0120coalition": 7266, "\u0120contributed": 7267, "\u0120Bas": 7268, "\u0120tank": 7269, "\u0120concluded": 7270, "\u0120Adam": 7271, "\u0120exists": 7272, "\u0120Tw": 7273, "\u0120founder": 7274, "\u0120Brian": 7275, "earing": 7276, "\u0120Lew": 7277, "\u0120atmosphere": 7278, "\u0120profile": 7279, "\u0120brew": 7280, "\u0120Id": 7281, "\u0120situations": 7282, "\u0120Championship": 7283, "\u0120Author": 7284, "rates": 7285, "\u0120incredible": 7286, "\u0120Constitution": 7287, "\u0120signal": 7288, "otes": 7289, "\u0120Rog": 7290, "\u0120accurate": 7291, "300": 7292, "\u0120Victor": 7293, "otten": 7294, "\u0120unp": 7295, "\u0120Where": 7296, "ker": 7297, "\u0120Southern": 7298, ".\"[": 7299, "\u0120employment": 7300, "\u0120clients": 7301, "Dr": 7302, "\u0120keeps": 7303, "\u0120informed": 7304, "\u0120continuing": 7305, "inity": 7306, "\u0120baseball": 7307, "\u0120generate": 7308, "\u0120ticket": 7309, "\u0120conven": 7310, "Also": 7311, "\u0120Conf": 7312, "\u0120weird": 7313, "\u0120tied": 7314, "lock": 7315, "adelph": 7316, "\u0120category": 7317, "\u0120infect": 7318, "ilarly": 7319, "acked": 7320, "\u0120angry": 7321, "\u0120Organ": 7322, "\u0120routine": 7323, "aron": 7324, "\u0120kil": 7325, "\u0120raising": 7326, "ifer": 7327, "\u0120machines": 7328, "\u0120registered": 7329, "\u0120proved": 7330, "there": 7331, "\u0120demands": 7332, "\u0120gaming": 7333, "\u0120Italian": 7334, "\u0120incredibly": 7335, "\u0120crucial": 7336, "\u0120stuck": 7337, "\u0120Civil": 7338, "\u0120Dallas": 7339, "cr": 7340, "\u0120terrible": 7341, "56": 7342, "MP": 7343, "\u0120feedback": 7344, "\u0120upper": 7345, "\u0120plastic": 7346, "\u0120imper": 7347, "\u0120newly": 7348, "\u0120Joseph": 7349, "\u0120consumption": 7350, "\u0120dozen": 7351, "\u0120enthus": 7352, "\u0120estate": 7353, "ali": 7354, "rage": 7355, "\u0120innoc": 7356, "\u0120manip": 7357, "\u0120Tem": 7358, "\u0120conscious": 7359, "\u0120bills": 7360, "\u0120Cross": 7361, "\u0120Spain": 7362, "ifications": 7363, "Today": 7364, "\u0120writers": 7365, "\u0120excess": 7366, "inding": 7367, "\u0120aggressive": 7368, "\u0120reporter": 7369, "\u0120compens": 7370, "\u0120returning": 7371, "\u0120stead": 7372, "\u0120programming": 7373, "\u0120Thanks": 7374, "\u0120represented": 7375, "\u0120conclusion": 7376, "98": 7377, "\u0120rus": 7378, "\u0120Bowl": 7379, "\u0120AR": 7380, "MS": 7381, "\u0120origin": 7382, "\u0120assistant": 7383, "adelphia": 7384, "\u0120roster": 7385, "\u0120Minnesota": 7386, "\u0120organized": 7387, "ria": 7388, "\u0120penalty": 7389, "lers": 7390, "\u0120drinking": 7391, "\u0120paint": 7392, "\u0120satell": 7393, "\u0120gro": 7394, "\u0120Program": 7395, "\u0120capture": 7396, "ni": 7397, "\u0120conspir": 7398, "\u0120interpret": 7399, "\u0120explanation": 7400, "iscal": 7401, "58": 7402, "\u0120county": 7403, "iscons": 7404, "essed": 7405, "mont": 7406, "ima": 7407, "\u0120%": 7408, "anny": 7409, "gorith": 7410, "emen": 7411, "isconsin": 7412, "\u0120assistance": 7413, "\u0120Roman": 7414, "\u0120complaint": 7415, "\u0120ru": 7416, "\u0120nut": 7417, "LA": 7418, "\u0120magic": 7419, "\u0120tall": 7420, "\u0120Oper": 7421, "\u0120granted": 7422, "Ed": 7423, "Because": 7424, "\u0120Contin": 7425, "star": 7426, "Off": 7427, "\u0120Parliament": 7428, "\u0120complicated": 7429, "\u0120audio": 7430, "\u0120chances": 7431, "\u0120extract": 7432, "rypt": 7433, "\u0120Gi": 7434, "\u01201999": 7435, "\u0120hel": 7436, "\u0120Educ": 7437, "era": 7438, "\u0120shares": 7439, "\u0120successfully": 7440, "esy": 7441, "........": 7442, "\u0120IT": 7443, "zy": 7444, "\u0120pilot": 7445, "\u0120Ep": 7446, "\u0120Hot": 7447, "\u0120myth": 7448, "\u0120recovery": 7449, "\u0120Test": 7450, "\u0120techniques": 7451, "\u0120iron": 7452, "\u0120Care": 7453, "\u0120Zeal": 7454, "\u0120SC": 7455, "\u0120scenes": 7456, "\u0120Fre": 7457, "\u0120veteran": 7458, "\u0120Win": 7459, "\u0120($": 7460, "\u0120degrees": 7461, "actions": 7462, "ked": 7463, "\u0120sympt": 7464, "thew": 7465, "\u0120lawmakers": 7466, "\u0120western": 7467, "\u0120operate": 7468, "\u0120ads": 7469, "rating": 7470, "\u0120habit": 7471, "\u0120aimed": 7472, "Inst": 7473, "anchester": 7474, "\u0120phr": 7475, "rep": 7476, "rete": 7477, "\u0120taste": 7478, "idency": 7479, "\u0120engaged": 7480, "\u0120privile": 7481, "\u012055": 7482, "========": 7483, "\u0120rating": 7484, "\u0120teaching": 7485, "\u0120Os": 7486, "\u0120academic": 7487, "itar": 7488, "\u0120therap": 7489, "\u0120passes": 7490, "\u0120dollar": 7491, "hent": 7492, "\u0120automatically": 7493, "\u0120Pacific": 7494, "\u0120monit": 7495, "\u0120blocks": 7496, "abama": 7497, "\u0120attended": 7498, "\u0120permanent": 7499, "\u0120survive": 7500, "uan": 7501, "\u0120anticip": 7502, "\u0120enable": 7503, "\u0120Look": 7504, "\u0120extrem": 7505, "\u0120Foreign": 7506, "chain": 7507, "%.": 7508, "\u0120marked": 7509, "itals": 7510, "\u0120hidden": 7511, "\u0120accomp": 7512, "\u0120titles": 7513, "\u0120Senator": 7514, "\u0120NBC": 7515, "\u0120taught": 7516, "aed": 7517, "\u0120Linux": 7518, "\u0120bom": 7519, "\u0120index": 7520, "everal": 7521, "\u0120elite": 7522, "ibilities": 7523, "\u0120lawyers": 7524, "from": 7525, "\u0120depending": 7526, "\u0120valuable": 7527, "\u0120installed": 7528, "\u0120championship": 7529, "\u0120root": 7530, "\u0120compre": 7531, "mal": 7532, "\u0120Bull": 7533, "\u0120downtown": 7534, "\u0120equivalent": 7535, "\u0120solve": 7536, "rific": 7537, "\u0120duty": 7538, "\u0120Special": 7539, "\u0120Business": 7540, "\u012064": 7541, "\u0120pace": 7542, "HS": 7543, "\u0120reputation": 7544, "\u0120uncertain": 7545, "\u0120phones": 7546, "uine": 7547, "\u0120overse": 7548, "bal": 7549, "\u0120Taylor": 7550, "\u0120personnel": 7551, "\u0120pin": 7552, "reams": 7553, "aturally": 7554, "\u0120sufficient": 7555, "\u0120visited": 7556, "\u0120warming": 7557, "\u0120principles": 7558, "\u0120vulnerable": 7559, "\u0120enjoyed": 7560, "\u0120fake": 7561, "\u0120Nick": 7562, "\u0120advis": 7563, "\u0120negotiations": 7564, "inder": 7565, "\u0120generated": 7566, "\u0120exposure": 7567, "\u0120recording": 7568, "\u0120collected": 7569, "\u0120regardless": 7570, "\u0120dict": 7571, "EA": 7572, "\u0120bitcoin": 7573, "\u0120elev": 7574, "\u00e3\u0122": 7575, "active": 7576, "\u0120Kelly": 7577, "\u0120Anth": 7578, "\u0120cup": 7579, "\u0120patterns": 7580, "Getty": 7581, "\u0120Take": 7582, "))": 7583, "\u0120Avenue": 7584, "\u0120Josh": 7585, "bro": 7586, "\u0120disaster": 7587, "\u0120cable": 7588, "\u012065": 7589, "\u0120chat": 7590, "\u0120worker": 7591, "\u0120mainly": 7592, "\u0120racial": 7593, "quarters": 7594, "\u0120Coast": 7595, "\u0120Viet": 7596, "month": 7597, "\u0120pounds": 7598, "\u0120150": 7599, "\u0120Call": 7600, "\u0120portion": 7601, "\u0120afraid": 7602, "\u0120inspir": 7603, "\u0120Ah": 7604, "\u0120defence": 7605, "\u0120bes": 7606, "\u0120Eastern": 7607, "da": 7608, "\u0120Tony": 7609, "\u0120tracks": 7610, "\u0120busy": 7611, "\u0120grant": 7612, "\u0120shit": 7613, "\u0120intense": 7614, "\u0120Series": 7615, "\u0120LGBT": 7616, "orne": 7617, "\u0120Still": 7618, "athy": 7619, "\u0120funny": 7620, "\u0120apolog": 7621, "\u0120surgery": 7622, "\u0120Moscow": 7623, "mann": 7624, "\u0120Coll": 7625, "\u0120possession": 7626, "\u0120prominent": 7627, "\u0120Mars": 7628, "\u0120comic": 7629, "\u0120Ger": 7630, "ashes": 7631, "97": 7632, "ules": 7633, "\u0120Ray": 7634, "\u0120thin": 7635, "\u0120engineering": 7636, "\u0120troub": 7637, "\u0120Kurd": 7638, "this": 7639, "\u0120processes": 7640, "\u0120Nation": 7641, "fall": 7642, "\u0120Kent": 7643, "\u0120Come": 7644, "\u0120entit": 7645, "\u0120\u00e2\u0122\u013b": 7646, "\u0120unusual": 7647, "raph": 7648, "etary": 7649, "\u0120describes": 7650, "Col": 7651, "world": 7652, "96": 7653, "\u0120resulted": 7654, "\u0120emerged": 7655, "\u0120taxp": 7656, "\u0120gall": 7657, "iler": 7658, "\u0120dim": 7659, "\u0120propag": 7660, "\u0120Iowa": 7661, "\u0120Oregon": 7662, "\u0120coordin": 7663, "\u0120corruption": 7664, "\u0120stations": 7665, "\u0120Invest": 7666, "\u0120fought": 7667, "\u0120AD": 7668, "\u0120brut": 7669, "\u0120extension": 7670, "ref": 7671, "\u0120blind": 7672, "\u0120adopted": 7673, "prise": 7674, "ye": 7675, "\u0120compete": 7676, "\u0120recru": 7677, "\u0120Zealand": 7678, "\u0120hadn": 7679, "Pr": 7680, "\u0120400": 7681, "\u0120mail": 7682, "\u0120everywhere": 7683, "\u0120Balt": 7684, "\u0120crypt": 7685, "\u0120Hom": 7686, "ba": 7687, "Rec": 7688, "Mean": 7689, "herent": 7690, "icate": 7691, "\u0120Ali": 7692, "\u0120contracts": 7693, "front": 7694, "\u0120neuro": 7695, "\u0120Lo": 7696, "\u0120Dead": 7697, "\u0120Rick": 7698, "\u0120feelings": 7699, "\u0120firms": 7700, "idelines": 7701, "\u00e2\u0122\u013b,": 7702, "\u0120minority": 7703, "\u0120spr": 7704, "cles": 7705, "HA": 7706, "\u0120advertising": 7707, "tes": 7708, "\u0120rarely": 7709, "\u0120discipl": 7710, "making": 7711, "\u0120Northern": 7712, "\u0120sanctions": 7713, "gun": 7714, "\u0120Veg": 7715, "scape": 7716, "\u0120Philadelphia": 7717, "upid": 7718, "\u0120cameras": 7719, "\u0120explicit": 7720, "\u0120strict": 7721, "viously": 7722, "log": 7723, "\u0120enorm": 7724, "\u0120finance": 7725, "\u0120cited": 7726, "ifies": 7727, "\u0120Before": 7728, "\u0120shortly": 7729, "UL": 7730, "\u0120Policy": 7731, "olt": 7732, "\u0120expectations": 7733, "\u0120implementation": 7734, "ogen": 7735, "\u0120recip": 7736, "cling": 7737, "\u0120Greek": 7738, "\u0120thick": 7739, "\u0120thousand": 7740, "antic": 7741, "\u0120Mu": 7742, "\u0120loud": 7743, "istent": 7744, "\u0120affili": 7745, "urrent": 7746, "orough": 7747, "\u0120Navy": 7748, "\u0120inev": 7749, "rell": 7750, "cus": 7751, "\u0120photograph": 7752, "\u0120medium": 7753, "azz": 7754, "\u0120Wisconsin": 7755, "\u0120scenario": 7756, "\u0120Food": 7757, "\u0120Live": 7758, "\u0120sup": 7759, "ilton": 7760, "\u0120plug": 7761, "\u0120veget": 7762, "\u0120ho": 7763, "\u0120visible": 7764, "LC": 7765, "\u0120lights": 7766, "\u0120creates": 7767, "\u0120priority": 7768, "\u0120ven": 7769, "\u0120bridge": 7770, "eland": 7771, "inking": 7772, "\u0120obst": 7773, "\u0120agric": 7774, "ATE": 7775, "\u0120permission": 7776, "\u0120Foot": 7777, "\u0120algorith": 7778, "izon": 7779, "Co": 7780, "elect": 7781, "\u0120participate": 7782, "aska": 7783, "\u0120wing": 7784, "who": 7785, "asion": 7786, "\u0120browser": 7787, "\u0120Global": 7788, "\u0120tag": 7789, "\u0120Ol": 7790, "\u0120Has": 7791, "\u0120mel": 7792, "\u0120acceler": 7793, "\u0120dozens": 7794, "\u0120Kingdom": 7795, "\u0120historic": 7796, "\u0120computers": 7797, "\u0120laid": 7798, "\u0120basketball": 7799, "\u0120losses": 7800, "text": 7801, "\u0120Saf": 7802, "\u0120Ash": 7803, "76": 7804, "ogether": 7805, "\u0120unw": 7806, "::": 7807, "\u0120tor": 7808, "\u0120Amendment": 7809, "Mar": 7810, "\u0120strikes": 7811, "\u0120principle": 7812, "\u0120Development": 7813, "\u0120formal": 7814, "EP": 7815, "igen": 7816, "54": 7817, "\u0120scoring": 7818, "obs": 7819, "athered": 7820, "\u012044": 7821, "\u0120counsel": 7822, "found": 7823, "++": 7824, "\u0120shock": 7825, "\u0120wonderful": 7826, "\u0120SP": 7827, "\u0120behalf": 7828, "abs": 7829, "\u0120uncom": 7830, "profit": 7831, "52": 7832, "enth": 7833, "\u0120interface": 7834, "\u0120establishment": 7835, "\u0120toler": 7836, "\u0120Henry": 7837, "\u0120Greg": 7838, "amber": 7839, "car": 7840, "\u0120Major": 7841, "\u0120Thus": 7842, "Us": 7843, "\u0120gained": 7844, "\u0120fee": 7845, "lete": 7846, "she": 7847, "\u0120founded": 7848, "etime": 7849, "\u0120foundation": 7850, "jo": 7851, "51": 7852, "\u0120ESP": 7853, "ilipp": 7854, "\u0120clubs": 7855, "\u0120cannabis": 7856, "\u0120ju": 7857, "\u0120airport": 7858, "\u0120Key": 7859, "ystem": 7860, "\u0120borrow": 7861, "olis": 7862, "weet": 7863, "BO": 7864, "\u0120manufacturing": 7865, "\u0120rely": 7866, "\u0120Hit": 7867, "aus": 7868, "\u0120Pay": 7869, "\u0120Alabama": 7870, "\u0120genuine": 7871, "\u0120Royal": 7872, "rators": 7873, "Before": 7874, "uer": 7875, "\u0120component": 7876, "\u0120ridic": 7877, "osexual": 7878, "\u0120wheel": 7879, "rative": 7880, "\u0120Oak": 7881, "\u0120journalist": 7882, "\u0120relief": 7883, "\u0120Sn": 7884, "\u0120saved": 7885, "\u0120hole": 7886, "\u0120yield": 7887, "\u0120headed": 7888, "\u0120cyber": 7889, "Ne": 7890, "\u0120Moh": 7891, "ependent": 7892, "\u0120gift": 7893, "bell": 7894, "\u0120fault": 7895, "\u0120withdraw": 7896, "\u0120indicate": 7897, "\u0120drawing": 7898, "\u0120uniform": 7899, "umer": 7900, "\u0120Rand": 7901, "\u0120Vis": 7902, "arlier": 7903, "\u0120stable": 7904, "\u0120ships": 7905, "\u0120->": 7906, "\u0120banned": 7907, "\u0120magn": 7908, "\u0120Mid": 7909, "\u0120footage": 7910, "Meanwhile": 7911, "rous": 7912, "\u0120doors": 7913, "lan": 7914, "\u0120recognized": 7915, "\u01201960": 7916, "\u0120containing": 7917, "pread": 7918, "\u0120FC": 7919, "\u0120river": 7920, "ami": 7921, "\u0120struggling": 7922, "Sub": 7923, "\u0120spark": 7924, "\u0120Academy": 7925, "\u0120walls": 7926, "\u0120achieved": 7927, "opher": 7928, "ounced": 7929, "\u0120neighb": 7930, "aning": 7931, "\u0120plate": 7932, "\u0120edition": 7933, "\u0120HT": 7934, "portion": 7935, "mate": 7936, "\u0120movements": 7937, "\u0120deliber": 7938, "uce": 7939, "teen": 7940, "Post": 7941, "\u0120sharp": 7942, "\u0120AS": 7943, "\u0120Snow": 7944, "ulating": 7945, "\u0120Three": 7946, "\u0120episodes": 7947, "\u0120neutral": 7948, "\u0120Premier": 7949, "\u0120Ret": 7950, "\u0120Fund": 7951, "\u0120exception": 7952, "etts": 7953, "\u0120producer": 7954, "________________": 7955, "\u0120Fred": 7956, "\u0120destruction": 7957, "\u01201998": 7958, "oured": 7959, "\u0120beliefs": 7960, "\u012047": 7961, "\u0120Review": 7962, "\u0120legend": 7963, "\u0120pump": 7964, "\u0120McG": 7965, "\u0120backed": 7966, "umin": 7967, "\u0120liked": 7968, "\u0120hired": 7969, "idespread": 7970, "cription": 7971, "\u0120roles": 7972, "\u0120languages": 7973, "\u0120profession": 7974, "\u0120entering": 7975, "osa": 7976, "\u0120VR": 7977, "\u0120interviews": 7978, "\u0120hang": 7979, "isp": 7980, "\u0120Kir": 7981, "eman": 7982, "\u0120tox": 7983, "\u0120philosophy": 7984, "\u0120Administration": 7985, "\u0120arrange": 7986, "oen": 7987, "interest": 7988, "\u0120flaw": 7989, "Those": 7990, "\u0120Nob": 7991, "sylv": 7992, "imore": 7993, "\u0120stadium": 7994, "\u0120Atlanta": 7995, "\u0120Jac": 7996, "\u0120reduction": 7997, "\u0120dinner": 7998, "ca": 7999, "ja": 8000, "\u0120bath": 8001, "\u0120Report": 8002, "iel": 8003, "uper": 8004, "\u0120Turkish": 8005, "400": 8006, "\u0120aver": 8007, "\u0120finger": 8008, "\u0120Note": 8009, "\u0120Conference": 8010, "\u0120tackle": 8011, "\u0120cha": 8012, "burgh": 8013, "\u0120gonna": 8014, "\u0120Diego": 8015, "\u0120Point": 8016, "\u0120crop": 8017, "\u0120Centre": 8018, "\u0120farmers": 8019, "\u0120Manchester": 8020, "\u0120nominee": 8021, "\u012041": 8022, "53": 8023, "aching": 8024, "\u0120Jason": 8025, "\u0120barely": 8026, "ATO": 8027, "\u0120structures": 8028, "\u0120contained": 8029, "\u0120synt": 8030, "\u0120Ott": 8031, "\u0120delivery": 8032, "\u0120convin": 8033, "%,": 8034, "\u0120processing": 8035, "\u0120discrimination": 8036, "\u0120incent": 8037, "riers": 8038, "\u0120Fair": 8039, "erved": 8040, "RS": 8041, "\u0120Data": 8042, "then": 8043, "\u0120Arm": 8044, "abinet": 8045, "\u0120intellectual": 8046, "\u0120Radio": 8047, "amsung": 8048, "\u012046": 8049, "\u0120Bry": 8050, "\u0120OK": 8051, "\u0120Field": 8052, "Me": 8053, "\u0120Did": 8054, "\u0120upset": 8055, "\u0120Perhaps": 8056, "\u0120Mir": 8057, "\u0120Education": 8058, "sylvania": 8059, "away": 8060, "President": 8061, "\u0120challenging": 8062, "\u0120proven": 8063, "\u0120restrictions": 8064, "rik": 8065, "\u0120forever": 8066, "ho": 8067, "https": 8068, "olen": 8069, "\u0120electronic": 8070, "\u0120hitting": 8071, "\u0120Hay": 8072, "\u0120euro": 8073, "\u0120unex": 8074, "\u0120reviews": 8075, "\u0120Fed": 8076, "\u0120Christians": 8077, "\u012043": 8078, "\u0120NC": 8079, "\u0120convicted": 8080, "Star": 8081, "\u0120illness": 8082, "\u0120smooth": 8083, "page": 8084, "Dav": 8085, "\u0120Hor": 8086, "\u0120retired": 8087, "\u0120indicated": 8088, "usive": 8089, "\u0120producing": 8090, "\u0120About": 8091, "\u0120Harry": 8092, "\u0120rapidly": 8093, "\u0120rose": 8094, "\u0120hide": 8095, "fr": 8096, "\u0120corporations": 8097, "\u0120ocean": 8098, "iy": 8099, "\u0120Rus": 8100, "aying": 8101, "owing": 8102, "\u0120listening": 8103, "\u0120Reuters": 8104, "\u0120UFC": 8105, "\u0120Sat": 8106, "\u0120technique": 8107, "\u0120mo": 8108, "yard": 8109, "sels": 8110, "\u0120loyal": 8111, "\u0120Nic": 8112, "lessly": 8113, "\u0120robot": 8114, "\u0120climb": 8115, "\u0120notion": 8116, "\u0120begun": 8117, "87": 8118, "\u0120util": 8119, "\u0120recognition": 8120, "\u0120ren": 8121, "ouver": 8122, "engers": 8123, "\u0120perpet": 8124, "\u0120association": 8125, "\u0120milk": 8126, "inf": 8127, "\u0120asks": 8128, "\u0120websites": 8129, "\u0120description": 8130, "\u0120Pack": 8131, "\u0120tickets": 8132, "\u0120Pen": 8133, "achus": 8134, "\u0120flash": 8135, "\u0120bra": 8136, "\u0120suggesting": 8137, "enny": 8138, "\u0120Judge": 8139, "\u0120exclusive": 8140, "\u0120reaching": 8141, "\u0120prepare": 8142, "iti": 8143, "\u0120Kansas": 8144, "Who": 8145, "ione": 8146, "\u0120bail": 8147, "\u0120frag": 8148, "\u0120progressive": 8149, "\u0120burd": 8150, "\u0120exceed": 8151, "\u0120equally": 8152, "\u0120Hard": 8153, "\u0120hardly": 8154, "\u0120widespread": 8155, "\u0120ABC": 8156, "\u0120campaigns": 8157, "\u0120Mayor": 8158, "\u0120contribute": 8159, "udes": 8160, "ologists": 8161, "\u0120branch": 8162, "Look": 8163, "\u0120Rose": 8164, "\u0120grass": 8165, "\u0120initiative": 8166, "\u0120Market": 8167, "\u0120ethnic": 8168, "\u0120external": 8169, "ikes": 8170, "\u0120Circ": 8171, "uma": 8172, "rient": 8173, "\u0120sensitive": 8174, "\u0120practical": 8175, "usted": 8176, "elf": 8177, "\u0120unclear": 8178, "\u0120normally": 8179, "Ref": 8180, "\u0120representative": 8181, "pat": 8182, "ls": 8183, "89": 8184, "thon": 8185, "\u0120welf": 8186, "\u0120Full": 8187, "\u0120reducing": 8188, "appy": 8189, "\u0120friendly": 8190, "bec": 8191, "\u0120carefully": 8192, "\u0120Arabia": 8193, "\u0120Ref": 8194, "lad": 8195, "ester": 8196, "\u0120Ly": 8197, "PM": 8198, "\u0120Luc": 8199, "\u0120racist": 8200, "\u0120invent": 8201, "rical": 8202, "ouch": 8203, "PG": 8204, "\u0120CO": 8205, "\u0120Next": 8206, "\u0120respectively": 8207, "senal": 8208, "rator": 8209, "\u0120tail": 8210, "imm": 8211, "\u0120McCain": 8212, "\u0120Bernie": 8213, "ancouver": 8214, "\u0120overwhelming": 8215, "\u0120viewers": 8216, "\u0120Beach": 8217, "stract": 8218, "\u0120welfare": 8219, "arrass": 8220, "\u0120Further": 8221, "\u0120convinced": 8222, "UN": 8223, "\u0120smoke": 8224, "umes": 8225, "\u0120collapse": 8226, "\u0120involvement": 8227, "\u0120Lind": 8228, "\u0120thrown": 8229, "pload": 8230, "\u0120connections": 8231, "heast": 8232, "\u0120terrorists": 8233, "\u0120Battle": 8234, "\u0120strategic": 8235, "\u0120hook": 8236, "\u012000": 8237, "\u0120Latin": 8238, "\u0120recover": 8239, "omething": 8240, "igrant": 8241, "\u0120Ont": 8242, "\u0120wine": 8243, "Mc": 8244, "inois": 8245, "\u0120Music": 8246, "rolled": 8247, "\u0120minds": 8248, "\u0120vital": 8249, "\u0120settlement": 8250, "\u0120statistics": 8251, "\u0120lists": 8252, "\u0120vary": 8253, "\u0120Sir": 8254, "\u0120featuring": 8255, "\u0120ESPN": 8256, "ecut": 8257, "\u0120Dig": 8258, "achusetts": 8259, "\u0120behaviour": 8260, "\u0120independence": 8261, "worth": 8262, "\u0120fantasy": 8263, "\u0120devast": 8264, "nedy": 8265, "core": 8266, "uties": 8267, "\u0120invited": 8268, "\u0120complaints": 8269, "\u0120joining": 8270, "\u0120scores": 8271, "dem": 8272, "\u0120fiscal": 8273, "\u0120deeper": 8274, "abil": 8275, "\u0120Pennsylvania": 8276, "ifest": 8277, "\u0120steal": 8278, "\u0120anger": 8279, "\u0120deputy": 8280, "\u0120elig": 8281, "\u0120wars": 8282, "\u0120Square": 8283, "\u0120Tenn": 8284, "\u0120investigate": 8285, "\u0120Town": 8286, "\u0120sugar": 8287, "\u0120constitutional": 8288, "\u0120III": 8289, "\u0120scholars": 8290, "\u0120Pit": 8291, "\u0120iOS": 8292, "\u0120anybody": 8293, "\u0120subjects": 8294, "\u0120AND": 8295, "\u0120array": 8296, "\u0120alien": 8297, "FA": 8298, "\u0120Ult": 8299, "\u0120Gov": 8300, "\u0120lobby": 8301, "\u0120ownership": 8302, "\u0120framework": 8303, "\u0120unemployment": 8304, "\u0120Division": 8305, "\u0120transgender": 8306, "bn": 8307, "\u0120improvements": 8308, "\u0120SS": 8309, "\u0120menu": 8310, "\u0120peak": 8311, "Back": 8312, "\u0120screens": 8313, "ihad": 8314, "\u0120inject": 8315, "\u0120luck": 8316, "iversary": 8317, "\u0120define": 8318, "\u0120tasks": 8319, "\u0120Xbox": 8320, "\u0120democratic": 8321, "\u0120scandal": 8322, "icking": 8323, "\u0120jury": 8324, "acon": 8325, "\u0120Anton": 8326, "Che": 8327, "\u0120Ministry": 8328, "\u0120cos": 8329, "\u0120Es": 8330, "\u0120comprehens": 8331, "osit": 8332, "\u0120Kat": 8333, "\u0120remem": 8334, "\u0120discovery": 8335, "unior": 8336, "\u0120register": 8337, "\u0120casual": 8338, "\u0120citizen": 8339, "RI": 8340, "\u0120fab": 8341, "Under": 8342, "een": 8343, "\u0120roads": 8344, "\u0120disagree": 8345, "\u0120failing": 8346, "\u0120Never": 8347, "\u0120Little": 8348, "\u0120Jay": 8349, "\u0120dynamic": 8350, "\u0120serves": 8351, "\u0120Cameron": 8352, "\u0120Brother": 8353, "\u0120Mah": 8354, "\u0120testim": 8355, "\u0120gathered": 8356, "\u0120Stone": 8357, "\u0120Information": 8358, "Sm": 8359, "\u0120soph": 8360, "oding": 8361, "\u0120implemented": 8362, "\u0120controversy": 8363, "\u0120collective": 8364, "\u0120trained": 8365, "anna": 8366, "\u0120NSA": 8367, "\u0120neighbour": 8368, "\u0120fears": 8369, "leveland": 8370, "\u0120samples": 8371, "\u0120fiction": 8372, "\u0120prosec": 8373, "agg": 8374, "\u0120estimate": 8375, "\u0120Community": 8376, "69": 8377, "\u0120Ice": 8378, "\u0120Medical": 8379, "\u01201997": 8380, "\u0120Philipp": 8381, "\u0120referring": 8382, "\u0120tip": 8383, "\u0120captain": 8384, "Will": 8385, "\u01201996": 8386, "\u0120spaces": 8387, "cific": 8388, "\u0120Walker": 8389, "\u0120versus": 8390, "\u0120legs": 8391, "\u0120Santa": 8392, "'.": 8393, "\u0120temporary": 8394, "PC": 8395, "\u0120noise": 8396, "\u0120HD": 8397, "\u0120overt": 8398, "\u0120incorpor": 8399, "\u0120tone": 8400, "\u0120visitors": 8401, "\u0120reven": 8402, "\u0120civilians": 8403, "\u0120wages": 8404, "\u0120hypot": 8405, "\u0120sin": 8406, "\u0120remarks": 8407, "\u0120awareness": 8408, "\u0120ON": 8409, "\u0120Spring": 8410, "\u0120recommended": 8411, "\u0120stupid": 8412, "\u0120Allen": 8413, "\u0120heading": 8414, "\u0120handful": 8415, "\u0120regulation": 8416, "icket": 8417, "\u0120Action": 8418, "\u0120Core": 8419, "\u0120platforms": 8420, "\u0120accus": 8421, "\u0120Anthony": 8422, "\u0120affairs": 8423, "\u0120touchdown": 8424, "\u0120rural": 8425, "\u0120attacking": 8426, "gener": 8427, "\u0120extend": 8428, "\u0120ultimate": 8429, "\u0120attached": 8430, "\u0120Vegas": 8431, "\u0120discussions": 8432, "\u0120Ren": 8433, "\u0120horse": 8434, "\u0120Brew": 8435, "mad": 8436, "\u0120reprodu": 8437, "\u0120genetic": 8438, "\u0120expanded": 8439, "\u0120attempting": 8440, "phones": 8441, "\u0120Matthew": 8442, "\u0120races": 8443, "including": 8444, "iry": 8445, "\u0120Queen": 8446, "\u0120raw": 8447, "\u0120ignore": 8448, "\u0120Columbia": 8449, "serv": 8450, "\u0120Pent": 8451, "\u0120Guardian": 8452, "hour": 8453, "\u0120Cook": 8454, "\u0120iP": 8455, "itionally": 8456, "\u0120gear": 8457, "\u0120symptoms": 8458, "\u0120Patrick": 8459, "\u0120suffer": 8460, "\u0120settings": 8461, "\u0120Make": 8462, "\u00e2\u0122\u0136\u00e2\u0122\u0136\u00e2\u0122\u0136\u00e2\u0122\u0136": 8463, "alling": 8464, "\u0120salary": 8465, "case": 8466, "\u0120licens": 8467, "mary": 8468, "GO": 8469, "\u0120tweeted": 8470, "angel": 8471, "\u0120publication": 8472, "\u0120brill": 8473, "\u0120factory": 8474, "\u0120suspected": 8475, "\u0120purchased": 8476, "aret": 8477, "\u0120intervention": 8478, "\u0120eastern": 8479, "\u0120holiday": 8480, "type": 8481, "2014": 8482, "\u0120theat": 8483, "esh": 8484, "About": 8485, "\u0120displ": 8486, "\u0120ranked": 8487, "\u0120Budd": 8488, "\u0120neck": 8489, "\u0120Austin": 8490, "\u0120Conservative": 8491, "\u0120Museum": 8492, "ective": 8493, "\u0120Roy": 8494, "\")": 8495, "\u0120cro": 8496, "\u0120enormous": 8497, "Sen": 8498, "####": 8499, "intendo": 8500, "\u0120cogn": 8501, "\u0120logic": 8502, "ultural": 8503, "ictions": 8504, "\u0120improvement": 8505, "\u0120API": 8506, "\u0120viewed": 8507, "\u0120ingred": 8508, "\u0120entertainment": 8509, "Ass": 8510, "\u0120legitimate": 8511, "\u0120Professor": 8512, "ommod": 8513, "\u0120presum": 8514, "\u0120Albert": 8515, "\u0120Massachusetts": 8516, "\u0120Ball": 8517, "\u01202019": 8518, "\u0120www": 8519, "News": 8520, "\u0120actors": 8521, "\u0120substantial": 8522, "\u0120humanity": 8523, "\u0120involves": 8524, "\u0120resource": 8525, "arms": 8526, "\u0120brothers": 8527, "\u0120liquid": 8528, "\u0120rational": 8529, "\u0120seemingly": 8530, "\u0120sorry": 8531, "\u0120layer": 8532, "\u0120loans": 8533, "\u0120rook": 8534, "\u0120investigating": 8535, "\u0120absence": 8536, "\u0120providers": 8537, "\u0120tomorrow": 8538, "\u0120fallen": 8539, "\u0120bureau": 8540, "\u0120grounds": 8541, "\u0120coaches": 8542, "\u0120stake": 8543, "\u0120resign": 8544, "\u0120outs": 8545, "rec": 8546, "\u0120advocates": 8547, "\u0120\u00e2\u0124\u00ac": 8548, "RC": 8549, "\u0120investigators": 8550, "\u0120conspiracy": 8551, "Where": 8552, "\u0120medicine": 8553, "\u0120dramatic": 8554, "\u0120fulf": 8555, "\u0120monitor": 8556, "\u0120Chair": 8557, "EST": 8558, "repre": 8559, "\u0120overs": 8560, "\u0120chapter": 8561, "\u0120Season": 8562, "\u0120coc": 8563, "oval": 8564, "GE": 8565, "lah": 8566, "\u0120Ho": 8567, ".-": 8568, "\u0120activist": 8569, "plete": 8570, "ped": 8571, "\u0120boat": 8572, "\u0120Check": 8573, "aka": 8574, "\u0120Control": 8575, "\u0120jur": 8576, "\u0120suspended": 8577, "\u0120papers": 8578, "Script": 8579, "\u0120Greece": 8580, "\u0120opinions": 8581, "\u0120Such": 8582, "\u0120Ross": 8583, "\u0120missile": 8584, "\u0120Golden": 8585, "\u0120celeb": 8586, "\u0120Revolution": 8587, "2016": 8588, "\u0120stayed": 8589, "\u0120covers": 8590, "\u0120Ra": 8591, "\u0120Head": 8592, "iverpool": 8593, "\u0120diversity": 8594, "otype": 8595, "\u0120bars": 8596, "Part": 8597, "\u0120gam": 8598, "Russ": 8599, "\u0120embarrass": 8600, "xit": 8601, "\u0120offices": 8602, "\u0120Acc": 8603, "rets": 8604, "ourse": 8605, "claim": 8606, "\u0120Pot": 8607, "hot": 8608, "\u0120Iranian": 8609, "ammed": 8610, "\u0120disrupt": 8611, "cover": 8612, "\u0120WW": 8613, "\u0120preced": 8614, "\u0120poly": 8615, "\u0120forest": 8616, "wered": 8617, "\u0120careful": 8618, "mat": 8619, "reprene": 8620, "vard": 8621, "\u0120amid": 8622, "\u0120History": 8623, "79": 8624, "\u0120Hospital": 8625, "isting": 8626, "\u0120Ale": 8627, "\u0120authent": 8628, "quest": 8629, "\u0120Illinois": 8630, "\u0120CBS": 8631, "\u0120Sony": 8632, "uction": 8633, "\u0120ham": 8634, "geon": 8635, "Related": 8636, "dit": 8637, "\u0120Ap": 8638, "74": 8639, "72": 8640, "rine": 8641, "\u0120transportation": 8642, "\u0120Vancouver": 8643, "\u0120Gaza": 8644, "\u0120handed": 8645, "\u0120protocol": 8646, "\u0120consistently": 8647, "\u0120mountain": 8648, "\u012052": 8649, "\u0120reads": 8650, "\u0120Stat": 8651, "\u0120pref": 8652, "\u0120clothes": 8653, "\u0120attitude": 8654, "iability": 8655, "\u0120Share": 8656, "\u0120Kennedy": 8657, "\u0120porn": 8658, "\u0120princip": 8659, "\u0120Freedom": 8660, "\u0120depends": 8661, "\u0120mining": 8662, "\u0120petition": 8663, "\u0120noting": 8664, "\u0120warrant": 8665, "des": 8666, "\u0120conce": 8667, "\u0120colors": 8668, "\u0120lowest": 8669, "\u0120Anderson": 8670, "\u0120Tri": 8671, "\u0120addressed": 8672, "\u0120Family": 8673, "bi": 8674, "unes": 8675, "\u0120entr": 8676, "Ste": 8677, "\u0120Stadium": 8678, "xx": 8679, "\u0120throwing": 8680, "\u0120je": 8681, "\u0120fruit": 8682, "\u0120virtually": 8683, "!)": 8684, "\u0120stone": 8685, "\u0120foss": 8686, "\u0120Mean": 8687, "\u0120guarantee": 8688, "\u0120referend": 8689, "Both": 8690, "??": 8691, "\u0120speaks": 8692, "\u0120Baltimore": 8693, "inch": 8694, "\u0120steel": 8695, "\u0120closing": 8696, "\u0120reader": 8697, "dri": 8698, "FF": 8699, "\u0120buff": 8700, "\u0120personality": 8701, "\u0120appreciate": 8702, "\u0120Cre": 8703, "\u0120Iraqi": 8704, "\u0120surf": 8705, "\u0120Environment": 8706, "\u0120nerv": 8707, "iences": 8708, "maker": 8709, "\u0120km": 8710, "keep": 8711, "\u0120handling": 8712, "\u0120profits": 8713, "ordon": 8714, "\u0120grav": 8715, "\u0120marks": 8716, "low": 8717, "\u0120tries": 8718, "\u0120Broad": 8719, "\u0120contributions": 8720, "\u0120Engine": 8721, "ropri": 8722, "zed": 8723, "\u0120spiritual": 8724, "\u0120conversations": 8725, "\u0120fantastic": 8726, "\u0120Tro": 8727, "\u0120lands": 8728, "\u0120console": 8729, "ila": 8730, "\u0120horror": 8731, "ppers": 8732, "\".[": 8733, "icity": 8734, "\u0120gains": 8735, "\u0120covering": 8736, "\u0120tea": 8737, "ivals": 8738, "\u0120Harris": 8739, "Her": 8740, "\u0120hint": 8741, "\u0120astron": 8742, "aval": 8743, "\u0120shoulder": 8744, "scale": 8745, "\u0120wrest": 8746, "\u0120guest": 8747, "\u0120Ext": 8748, "\u0120accommod": 8749, "uted": 8750, "uits": 8751, "\u0120depression": 8752, "\u0120CA": 8753, "\u0120_": 8754, "\u0120Lewis": 8755, "\u0120lucky": 8756, "\u0120Bang": 8757, "\u0120encouraged": 8758, "flix": 8759, "amac": 8760, "\u0120judges": 8761, "\u0120incidents": 8762, "\u0120Cleveland": 8763, "\u0120drew": 8764, "\u0120subsequent": 8765, "ira": 8766, "\u0120spoken": 8767, "\u0120Howard": 8768, "annels": 8769, "\u0120Bad": 8770, "\u0120brown": 8771, "\u0120bacter": 8772, "Please": 8773, "ixed": 8774, "\u0120rhet": 8775, "\u0120ranks": 8776, "\u0120Getty": 8777, "\u0120photograp": 8778, "\u0120inflation": 8779, "\u0120inner": 8780, "\u0120Intelligence": 8781, "\u0120Po": 8782, "itting": 8783, "\u0120Ba": 8784, "\u0120maps": 8785, "abeth": 8786, "\u0120Patri": 8787, "ported": 8788, "ijing": 8789, "plate": 8790, "\u0120divided": 8791, "\u01201995": 8792, "\u0120NATO": 8793, "********": 8794, "\u0120paralle": 8795, "\u0120drama": 8796, "\u0120Mexican": 8797, "\u0120distributed": 8798, "\u0120gal": 8799, "\u0120innovation": 8800, "\u0120swing": 8801, "unicip": 8802, "\u0120cust": 8803, "\u0120Unfortunately": 8804, "\u0120premium": 8805, "\u0120voter": 8806, "\u0120permit": 8807, "\u0120revel": 8808, "\u0120Kong": 8809, "\u0120trem": 8810, "\u0120dance": 8811, "\u0120clim": 8812, "pled": 8813, "\u0120Las": 8814, "\u0120efficiency": 8815, "\u0120promises": 8816, "\u0120Indeed": 8817, "Note": 8818, "eding": 8819, "\u0120CH": 8820, "\u0120Which": 8821, "\u0120ballot": 8822, "\u012051": 8823, "pie": 8824, "\u0120Adv": 8825, "\u0120temperatures": 8826, "\u0120Samsung": 8827, "\u0120portray": 8828, "\u0120spokesperson": 8829, "\u0120locked": 8830, "\u0120lying": 8831, "\u0120improving": 8832, "\u0120threw": 8833, "\u0120joy": 8834, "\u0120dump": 8835, "Art": 8836, "\u0120musical": 8837, "PP": 8838, "\u0120mistakes": 8839, "dated": 8840, "\u0120shout": 8841, "\u0120Start": 8842, "\u0120homeless": 8843, "conf": 8844, "\u0120replacement": 8845, "eries": 8846, "\u0120comedy": 8847, "\u0120checks": 8848, "\u0120Without": 8849, "\u0120Moon": 8850, "\u0120instrument": 8851, "ounce": 8852, "\u0120Connect": 8853, "\u0120acknowledged": 8854, "\u0120barrel": 8855, "\u0120responses": 8856, "\u0120protecting": 8857, "backs": 8858, "\u0120Det": 8859, "\u00c2\u0134": 8860, "\u0120silver": 8861, "\u0120copies": 8862, "heim": 8863, "\u0120les": 8864, "\u0120AC": 8865, "\u0120dad": 8866, "\u0120breaks": 8867, "\u0120Plus": 8868, "\u0120Buff": 8869, "\u0120commonly": 8870, "\u0120lets": 8871, "\u0120legacy": 8872, "itage": 8873, "\u0120protein": 8874, "\u0120mathem": 8875, "\u0120joke": 8876, "amacare": 8877, "erted": 8878, "hop": 8879, "arre": 8880, "\u0120passengers": 8881, "2015": 8882, "\u0120yellow": 8883, "\u0120Marvel": 8884, "\u0120naturally": 8885, "Your": 8886, "\u0120Scient": 8887, "\u0120nomination": 8888, "Source": 8889, "\u0120measured": 8890, "aping": 8891, "oded": 8892, "alia": 8893, "\u0120Use": 8894, "\u0120abandoned": 8895, "\u0120mad": 8896, "\u0120Prince": 8897, "\u0120studied": 8898, "800": 8899, "\u0120Football": 8900, "helsea": 8901, "\u0120diverse": 8902, "argo": 8903, "\u0120acquired": 8904, "ieties": 8905, "\u0120Lyn": 8906, "Cons": 8907, "esty": 8908, "\u0120soil": 8909, "\u0120Marsh": 8910, "\u0120demonstrated": 8911, "\u0120blast": 8912, "\u0120rear": 8913, "\u0120funded": 8914, "\u0120headquarters": 8915, "hesis": 8916, "yo": 8917, "\u0120stolen": 8918, "\u0120scan": 8919, "\u0120counts": 8920, "\u0120tape": 8921, "\u0120partnership": 8922, "\u0120midfield": 8923, "\u0120NOT": 8924, "\u0120(\u00e2\u0122\u013e": 8925, "\u0120upgrade": 8926, "\u0120Cost": 8927, "\u0120Atlantic": 8928, "yer": 8929, "\u0120march": 8930, "\u0120ordinary": 8931, "\u0120Aud": 8932, "\u0120Nev": 8933, "\u0120rom": 8934, "aware": 8935, "\u0120literature": 8936, "\u0120plain": 8937, "\u0120stages": 8938, "\u0120\u00e2\u0122\u00a2": 8939, "\u0120assert": 8940, "\u01201994": 8941, "high": 8942, "\u0120AI": 8943, "\u0120helpful": 8944, "\u0120arrive": 8945, "\u0120exit": 8946, "\u0120scope": 8947, "\u0120falls": 8948, "63": 8949, "dog": 8950, "\u0120ignored": 8951, "BM": 8952, "\u0120twenty": 8953, "eters": 8954, "\u0120Master": 8955, "\u0120clock": 8956, "\u0120compe": 8957, "inction": 8958, "\u0120virus": 8959, "\u0120Trib": 8960, "\u0120referendum": 8961, "\u0120inequ": 8962, "\u0120unions": 8963, "\u0120Does": 8964, "assador": 8965, "\u0120Gun": 8966, "\u0120conservatives": 8967, "\u0120rif": 8968, "\u0120grid": 8969, "\u0120symp": 8970, "\u0120festival": 8971, "\u0120fro": 8972, "\u0120shopping": 8973, "\u0120waters": 8974, "\u0120Pop": 8975, "\u0120capabilities": 8976, "\u0120Bron": 8977, "\u0120ax": 8978, "lahoma": 8979, "\u0120usage": 8980, "\u0120Hind": 8981, "iate": 8982, "zing": 8983, "\u0120Empire": 8984, "aeda": 8985, "\u0120Abb": 8986, "ington": 8987, "\u0120Indiana": 8988, "iley": 8989, "\u0120transactions": 8990, "erg": 8991, "\u0120hoped": 8992, "\u0120distract": 8993, "\u0120Ast": 8994, "\u0120guitar": 8995, "VE": 8996, "\u0120Eag": 8997, "\u0120sty": 8998, "\u0120ramp": 8999, "\u0120assessment": 9000, "ctic": 9001, "\u0120universities": 9002, "\u0120Dave": 9003, "\u0120moon": 9004, "\u0120monitoring": 9005, "ormal": 9006, "acket": 9007, "bridge": 9008, "\u0120representing": 9009, "Facebook": 9010, "\u0120ratio": 9011, "\u0120Death": 9012, "encing": 9013, "ught": 9014, "62": 9015, "\u0120Prov": 9016, "\u0120conventional": 9017, "comes": 9018, "UST": 9019, "orge": 9020, "\u0120trave": 9021, "\u0120Set": 9022, "\u0120tracking": 9023, "door": 9024, "ntil": 9025, "\u0120Sometimes": 9026, "61": 9027, "only": 9028, "shire": 9029, "\u0120hung": 9030, "\u0120Sus": 9031, "\u0120reliable": 9032, "\u0120tie": 9033, "\u0120proposals": 9034, "\u0120skept": 9035, "\u0120Hell": 9036, "\u0120replied": 9037, "\u0120Ros": 9038, "fund": 9039, "uh": 9040, "\u0120criticized": 9041, "\u0120appearances": 9042, "rimin": 9043, "\u0120Ha": 9044, "ecutive": 9045, "ela": 9046, "\u0120racism": 9047, "\u0120insisted": 9048, "organ": 9049, "\u0120introduction": 9050, "\u01202020": 9051, "\u0120appointed": 9052, "dney": 9053, "\u0120Bureau": 9054, "olph": 9055, "agic": 9056, "\u0120Pass": 9057, "cut": 9058, "Ke": 9059, "\u0120Line": 9060, "\u0120beauty": 9061, "\u0120concrete": 9062, "\u0120receiver": 9063, "\u0120supplies": 9064, "\u0120performing": 9065, "made": 9066, "ji": 9067, "\u0120bub": 9068, "\u0120exch": 9069, "rite": 9070, "\u0120visiting": 9071, "\u0120Technology": 9072, "\u0120Denver": 9073, "ocument": 9074, "EE": 9075, "omes": 9076, "\u0120Capt": 9077, "theless": 9078, "RL": 9079, "\u0120letting": 9080, "AND": 9081, "\u0120deficit": 9082, "\u0120classified": 9083, "\u0120Galaxy": 9084, "\u0120auto": 9085, "HT": 9086, "\u0120render": 9087, "\u0120absor": 9088, "\u0120Orig": 9089, "\u0120swim": 9090, "\u0120accomplish": 9091, "\u0120programme": 9092, "\u0120presidency": 9093, "crib": 9094, "\u0120blocked": 9095, "\u0120Sweden": 9096, "archy": 9097, "\u0120dust": 9098, "\u0120Utah": 9099, "\u0120drove": 9100, "\u0120landscape": 9101, "\u0120cance": 9102, "\u0120Portland": 9103, "plus": 9104, "\u0120dismissed": 9105, "\u0120LA": 9106, "\u0120hyper": 9107, "\u0120abroad": 9108, "\u0120bonus": 9109, "\u0120Jam": 9110, "\u0120Tour": 9111, "har": 9112, "\u0120sequence": 9113, "\u0120predicted": 9114, "\u0120senator": 9115, "\u00c2\u00b0": 9116, "\u0120Age": 9117, "\u0120domain": 9118, "\u0120Code": 9119, "\u0120ec": 9120, "\u0120museum": 9121, "\u0120warn": 9122, "\u0120Associated": 9123, "acco": 9124, "\u0120persons": 9125, "NS": 9126, "\u0120dub": 9127, "iano": 9128, "aga": 9129, "\u0120requested": 9130, "\u0120trigger": 9131, "\u0120Ontario": 9132, "\u0120hockey": 9133, "\u0120Corpor": 9134, "\u0120artific": 9135, "\u0120dates": 9136, "\u0120testimony": 9137, "\u0120centers": 9138, "\u00d0\u00bb": 9139, "\u0120rocket": 9140, "irts": 9141, "\u0120ves": 9142, "\u0120transit": 9143, "\u0120congressional": 9144, "\u0120entitled": 9145, "ultane": 9146, "\u0120spokeswoman": 9147, "\u0120Front": 9148, "\u0120Nintendo": 9149, "\u0120Alexander": 9150, "\u0120rescue": 9151, "\u0120Cooper": 9152, "mony": 9153, "\u0120assign": 9154, "\u0120Bon": 9155, "\u0120equality": 9156, "\u0120patch": 9157, "\u0120urged": 9158, "\u0120bread": 9159, "\u0120Olympic": 9160, "\u0120documentary": 9161, "\u0120veterans": 9162, "\u0120clar": 9163, "fol": 9164, "93": 9165, "ais": 9166, "king": 9167, "\u0120\u00e2\u0122\u013f": 9168, "pton": 9169, "\u0120recall": 9170, "\u0120populations": 9171, "94": 9172, "\u0120Low": 9173, "\u0120breath": 9174, "Still": 9175, "92": 9176, "rooms": 9177, "\u0120whenever": 9178, "\u0120violation": 9179, "\u0120tactics": 9180, "\u0120wider": 9181, "71": 9182, "ounding": 9183, "\u0120Kar": 9184, "\u0120targeting": 9185, "Yet": 9186, "through": 9187, "\u0120pursue": 9188, "\u0120salt": 9189, "\">": 9190, "Are": 9191, "izabeth": 9192, "\u0120firing": 9193, "don": 9194, "\u0120Mill": 9195, "\u0120acid": 9196, "\u0120mole": 9197, "inating": 9198, "\u0120restaurants": 9199, "\u0120compare": 9200, "73": 9201, "fare": 9202, "Comp": 9203, "orous": 9204, "ennis": 9205, "\u0120wedd": 9206, "\u0120employed": 9207, "\u0120Roberts": 9208, "\u0120contrad": 9209, "\u0120Bible": 9210, "\u0120politically": 9211, "\u0120phrase": 9212, "\u0120satellite": 9213, "\u0120Cro": 9214, "\u0120survival": 9215, "\u0120retirement": 9216, "\u0120banking": 9217, "\u0120Form": 9218, "\u0120brilliant": 9219, "isons": 9220, "\u0120Girl": 9221, "atar": 9222, "\u0120channels": 9223, "\u0120servers": 9224, "\u0120Beijing": 9225, "\u0120soccer": 9226, "trans": 9227, "aver": 9228, "\u0120Mach": 9229, "they": 9230, "\u0120introduce": 9231, "\u0120Justin": 9232, "\u0120experiments": 9233, "enez": 9234, "\u0120prisoners": 9235, "rapped": 9236, "\u0120cig": 9237, "\u0120WH": 9238, "afe": 9239, "jud": 9240, "\u0120fighter": 9241, "600": 9242, "\u0120scientist": 9243, "OK": 9244, "\u0120YOU": 9245, "usalem": 9246, "\u0120List": 9247, "\u0120submit": 9248, "\u0120approached": 9249, "\u0120Award": 9250, "\u0120monthly": 9251, "\u0120Liverpool": 9252, "\u0120designs": 9253, "\u0120representatives": 9254, "\u0120titled": 9255, "ordinary": 9256, "\u0120quote": 9257, "\u0120popularity": 9258, "olves": 9259, "\u0120abilities": 9260, "oenix": 9261, "\u0120cul": 9262, "\u0120PD": 9263, "\u0120membership": 9264, "\u0120investigations": 9265, "\u0120focusing": 9266, "mans": 9267, "\u0120hosp": 9268, "\u0120bab": 9269, "\u0120Bridge": 9270, "Though": 9271, "\u0120Maryland": 9272, "\u0120saving": 9273, "pa": 9274, "\u0120rush": 9275, "\u0120Governor": 9276, "\u0120shadow": 9277, "ouri": 9278, "bow": 9279, "\u0120Hur": 9280, "\u0120Base": 9281, "\u0120objective": 9282, "berry": 9283, "\u0120Ted": 9284, "emed": 9285, "erts": 9286, "ederation": 9287, "\u0120mit": 9288, "\u0120prepar": 9289, "\u0120tips": 9290, "\u0120Was": 9291, "\u0120pipeline": 9292, "David": 9293, "\u0120childhood": 9294, "ika": 9295, "\u0120ratings": 9296, "\u0120thorough": 9297, "\u0120entreprene": 9298, "enter": 9299, "\u0120Vill": 9300, "\u0120Dutch": 9301, "was": 9302, "break": 9303, "\u0120actively": 9304, "\u0120Harvard": 9305, "\u0120pig": 9306, "\u0120Som": 9307, "\u0120demanding": 9308, "\u0120loose": 9309, "asty": 9310, "\u0120Bra": 9311, "\u0120unexpected": 9312, "CO": 9313, "\u0120smoking": 9314, "\u0120smell": 9315, "\u0120deny": 9316, "\u0120universal": 9317, "\u0120forecast": 9318, "\u0120argues": 9319, "\u0120phenomenon": 9320, "\u0120overseas": 9321, "mers": 9322, "olds": 9323, "\u0120settled": 9324, "walk": 9325, "\u0120Beck": 9326, "\u0120generations": 9327, "\u0120weekly": 9328, "\u0120chicken": 9329, "\u0120preparing": 9330, "\u012095": 9331, "\u0120smartphone": 9332, "\u0120producers": 9333, "\u0120butt": 9334, "\u0120PA": 9335, "\u0120legislative": 9336, "\u0120anxiety": 9337, "\u0120disturb": 9338, "\u0120Have": 9339, "\u0120innocent": 9340, "minute": 9341, "\u0120Click": 9342, "\u0120mortg": 9343, "\u0120celebrate": 9344, "Dem": 9345, "\u0120Ur": 9346, "iki": 9347, "\u0120provision": 9348, "\u0120DO": 9349, "\u0120keys": 9350, "ded": 9351, "\u0120shame": 9352, "\u0120arguing": 9353, "\u0120Design": 9354, "held": 9355, "\u0120questioned": 9356, "\u0120forcing": 9357, "\u0120Cow": 9358, "\u0120Hop": 9359, "ompson": 9360, "agh": 9361, "\u00e2\u0136": 9362, "\u0120broader": 9363, "\u0120encounter": 9364, "SL": 9365, "\u0120flags": 9366, "\u0120fool": 9367, "\u0120mac": 9368, "\u012053": 9369, "\u0120deadly": 9370, "\u0120fur": 9371, "84": 9372, "\u0120reverse": 9373, "oz": 9374, "\u0120weigh": 9375, "\u0120Edward": 9376, "\u0120Among": 9377, "\u0120tens": 9378, "\u0120~": 9379, "\u0120mos": 9380, "\u0120wealthy": 9381, "\u0120Obamacare": 9382, "\u0120unpre": 9383, "\u0120maintained": 9384, "\u0120surely": 9385, "\u0120shield": 9386, "\u0120Prop": 9387, "ocolate": 9388, "oret": 9389, "\u0120secondary": 9390, "isa": 9391, "aved": 9392, "Sim": 9393, "\u0120savings": 9394, "irlf": 9395, "\u0120roof": 9396, "\u0120stability": 9397, "\u0120civilian": 9398, "\u0120tab": 9399, "elson": 9400, "\u00c4\u0125": 9401, "\u0120Carter": 9402, "\u0120reveals": 9403, "mind": 9404, "\u0120mini": 9405, "\u0120alarm": 9406, "\u0120anniversary": 9407, "\u0120sorts": 9408, "ois": 9409, "\u0120Ak": 9410, "vernment": 9411, "El": 9412, "\u0120tonight": 9413, "\u0120releases": 9414, "\u0120Hon": 9415, "\u0120rooms": 9416, "irlfriend": 9417, "isk": 9418, "\u0120Gulf": 9419, "\u0120outrage": 9420, "\u0120prosecutors": 9421, "\u0120Left": 9422, "\u0120disorder": 9423, "inals": 9424, "\u0120exha": 9425, "orious": 9426, "\u0120shr": 9427, "\u0120relax": 9428, "\u0120windows": 9429, "\u0120threatening": 9430, "\u0120differently": 9431, "\u0120harassment": 9432, "\u0120quoted": 9433, "\u0120healthcare": 9434, "\u0120submitted": 9435, "\u0120arbit": 9436, "\u0120lunch": 9437, "step": 9438, "itter": 9439, "\u0120Run": 9440, "\u0120reforms": 9441, "\u0120torture": 9442, "rection": 9443, "\u0120fate": 9444, "\u0120stored": 9445, "\u0120okay": 9446, "\u0120Belg": 9447, "\u0120propaganda": 9448, "\u0120spots": 9449, "\u0120instructions": 9450, "\u0120Vietnam": 9451, "\u0120sevent": 9452, "\u0120rounds": 9453, "\u0120odds": 9454, "\u01201992": 9455, "aa": 9456, "\u0120aer": 9457, "html": 9458, "tenance": 9459, "\u0120errors": 9460, "ested": 9461, "\u0120Oklahoma": 9462, "\u0120hydro": 9463, "icism": 9464, "GA": 9465, "\u0120delic": 9466, "ailed": 9467, "\u0120Liberal": 9468, "\u0120silence": 9469, "\u0120Graham": 9470, "acts": 9471, "\u0120Warren": 9472, "\u0120graduate": 9473, "\u0120Sab": 9474, "\u0120affordable": 9475, "\u0120circle": 9476, "sect": 9477, "\u0120Bloom": 9478, "\u0120cooperation": 9479, "\u0120picks": 9480, "\u0120sear": 9481, "itary": 9482, "\u0120Sarah": 9483, "\u0120Fall": 9484, "orship": 9485, "\u0120Expl": 9486, "\u0120striking": 9487, "\u0120puzz": 9488, "\u0120persu": 9489, "\u0120streaming": 9490, "\u0120comprehensive": 9491, "race": 9492, "\u0120importantly": 9493, "\u0120cow": 9494, "\u0120possess": 9495, "Watch": 9496, "\u0120fing": 9497, "\u0120execution": 9498, "\u0120Ruby": 9499, "lined": 9500, "rows": 9501, "\u0120intim": 9502, "\u0120struggled": 9503, "\u0120Person": 9504, "\u0120assass": 9505, "\u0120Silver": 9506, "\u0120Leader": 9507, "uten": 9508, "ahu": 9509, "\u0120gent": 9510, "Ty": 9511, "\u0120Price": 9512, "Reuters": 9513, "ishop": 9514, "\u0120deserve": 9515, "\u0120Jerusalem": 9516, "\u0120landing": 9517, "\u0120calm": 9518, "\u0120alter": 9519, "\u0120ceremony": 9520, "\u0120assumed": 9521, "\u0120demonstrate": 9522, "\u0120difficulty": 9523, "83": 9524, "\u0120ages": 9525, "\u0120pron": 9526, "\u0120dying": 9527, "\u0120hal": 9528, "\u0120distingu": 9529, "asury": 9530, "\u0120stepped": 9531, "ethe": 9532, "\u0120borders": 9533, "\u0120chest": 9534, "\u0120Wolf": 9535, "\u0120Lt": 9536, "\u0120adventure": 9537, "\u0120pointing": 9538, "ova": 9539, "\u0120waves": 9540, "\u0120kilomet": 9541, "essee": 9542, "ierce": 9543, "\u0120Netflix": 9544, "atern": 9545, "\u0120autonom": 9546, "eals": 9547, "\u0120precisely": 9548, "\u0120architecture": 9549, "\u0120greatly": 9550, "\u0120Deb": 9551, "\u0120promising": 9552, "\u0120consent": 9553, "bury": 9554, "\u0120consideration": 9555, "\u0120Ten": 9556, "\u0120drives": 9557, "\u0120dialogue": 9558, "\u0120Main": 9559, "\u0120tremend": 9560, "\u0120Bud": 9561, "asant": 9562, "\u0120newsletter": 9563, "\u0120rookie": 9564, "\u0120awarded": 9565, "\u0120Meanwhile": 9566, "after": 9567, "\u0120repeat": 9568, "\u0120Story": 9569, "\u0120contribution": 9570, "\u0120Tele": 9571, "\u0120burning": 9572, "iev": 9573, "party": 9574, "\u0120simultane": 9575, "\u0120Scottish": 9576, "\u0120Vice": 9577, "\u0120donations": 9578, "\u0120Indust": 9579, "akh": 9580, "\u0120interf": 9581, "itol": 9582, "\u0120Magic": 9583, "\u0120voices": 9584, "\u0120analyst": 9585, "\u0120Bruce": 9586, "\u0120Tech": 9587, "ceptions": 9588, "\u0120gif": 9589, "\u0120frequency": 9590, "\u0120Common": 9591, "\u0120procedure": 9592, "\u0120wanting": 9593, "\u0120Pres": 9594, "\u0120executives": 9595, "\u0120playoffs": 9596, "lee": 9597, "oice": 9598, "\u0120staying": 9599, "apolis": 9600, "\u0120birds": 9601, "\u0120bias": 9602, "VD": 9603, "\u0120Hong": 9604, "\u0120Az": 9605, "izer": 9606, "\u0120inches": 9607, "\u0120trillion": 9608, "omy": 9609, "holders": 9610, "\u0120highlights": 9611, "\u0120semi": 9612, "\u0120remarkable": 9613, "\u0120whereas": 9614, "EX": 9615, "ributes": 9616, "\u0120Palestinians": 9617, "\u0120knee": 9618, "open": 9619, "\u0120Jonathan": 9620, "\u0120ans": 9621, "raig": 9622, "\u0120implications": 9623, "scribe": 9624, "\u0120formation": 9625, "\u0120superior": 9626, "\u0120strategies": 9627, "itual": 9628, "\u0120Berlin": 9629, "Step": 9630, "\u0120Link": 9631, "stal": 9632, "div": 9633, "\u0120Sydney": 9634, "\u0120MORE": 9635, "\u0120categories": 9636, "\u0120Ark": 9637, "\u0120fet": 9638, "\u0120followers": 9639, "\u0120cream": 9640, "Story": 9641, "portation": 9642, "FO": 9643, "\u0120contacted": 9644, "Ms": 9645, "\u0120judgment": 9646, "annon": 9647, "\u0120smile": 9648, "\u0120info": 9649, "\u0120emerging": 9650, "igious": 9651, "rif": 9652, "js": 9653, "onder": 9654, "omed": 9655, "yes": 9656, "bered": 9657, "vision": 9658, "\u0120Eff": 9659, "vertisements": 9660, "iffs": 9661, "hatt": 9662, "\u0120accessible": 9663, "\u0120crimin": 9664, "TP": 9665, "\u0120physically": 9666, "\u0120assigned": 9667, "\u012054": 9668, "\u0120Andre": 9669, "\u0120guidelines": 9670, "\u0120defeated": 9671, "\u0120wounded": 9672, "\u0120trials": 9673, "\u0120stem": 9674, "\u0120managing": 9675, "\u0120spell": 9676, "\u0120ministry": 9677, "\u0120grade": 9678, "\u0120coinc": 9679, "\u0120riding": 9680, "\u0120indicates": 9681, "\u0120centuries": 9682, "Christ": 9683, "cest": 9684, "\u0120Affairs": 9685, "\u0120opens": 9686, "aki": 9687, "\u0120pharm": 9688, "lla": 9689, "->": 9690, "\u0120meaningful": 9691, "\u0120tiss": 9692, "erent": 9693, "\u0120Mrs": 9694, "\u0120ease": 9695, "child": 9696, "\u0120margin": 9697, "\u0120Store": 9698, "\u0120clothing": 9699, "\u0120\u00e2\u012a\u0134": 9700, "\u0120Tes": 9701, "\u0120Six": 9702, "\u0120Capital": 9703, "\u0120participation": 9704, "cedented": 9705, "Mus": 9706, "\u0120revers": 9707, "aria": 9708, "\u0120poison": 9709, "\u0120Brexit": 9710, "\u0120120": 9711, "\u0120Yemen": 9712, "\u0120lapt": 9713, "\u0120competing": 9714, "\u0120memories": 9715, "\u0120CS": 9716, "\u0120theories": 9717, "\u0120recipe": 9718, "\u0120gross": 9719, "umble": 9720, "author": 9721, "hard": 9722, "91": 9723, "\u0120passage": 9724, "sl": 9725, "\u0120aged": 9726, "\u0120Credit": 9727, "\u0120bin": 9728, "\u0120drone": 9729, "\u0120blank": 9730, "\u0120dispute": 9731, "\u0120damaged": 9732, "\u01201993": 9733, "van": 9734, "\u0120Hamilton": 9735, "base": 9736, "\u0120substance": 9737, "\u0120hosted": 9738, "TER": 9739, "Google": 9740, "\u0120Chelsea": 9741, "\u0120Lam": 9742, "\u0120promoting": 9743, "\u0120facilit": 9744, "\u0120openly": 9745, "\u0120Instagram": 9746, "\u01201950": 9747, "\u0120Vik": 9748, "View": 9749, "\u0120Children": 9750, "\u0120Crime": 9751, "\u0120clinical": 9752, "Out": 9753, "\u0120nic": 9754, "eremy": 9755, "\u0120Hold": 9756, "bits": 9757, "\u0120investments": 9758, "\u0120consensus": 9759, "even": 9760, "igate": 9761, "\u0120Leon": 9762, "ses": 9763, "\u0120Fal": 9764, "\u0120educational": 9765, "ito": 9766, "const": 9767, "\u0120dish": 9768, "\u0120manifest": 9769, "\u0120custody": 9770, "week": 9771, "82": 9772, "\u0120eligible": 9773, "\u0120Hawai": 9774, "\u0120legally": 9775, "\u0120missions": 9776, "\u0120endorse": 9777, "\u0120gate": 9778, "eria": 9779, "\u0120memo": 9780, "\u0120GT": 9781, "\u0120tables": 9782, "\u0120Pict": 9783, "\u0120nin": 9784, "\u0120studying": 9785, "Hz": 9786, "\u0120?": 9787, "\u0120charity": 9788, "aration": 9789, "adi": 9790, "\u0120addresses": 9791, "\u0120inspect": 9792, "\u0120discount": 9793, "rix": 9794, "left": 9795, "\u0120battles": 9796, "ALL": 9797, "\u0120Der": 9798, "\u0120250": 9799, "\u0120Assembly": 9800, "\u0120athletes": 9801, "Pre": 9802, "\u0120Trade": 9803, "\u0120fossil": 9804, "\u0120enthusi": 9805, "\u0120Management": 9806, "iac": 9807, "\u0120suspects": 9808, "\u0120tired": 9809, "\u0120helic": 9810, "Act": 9811, "\u0120counterpart": 9812, "\u0120na": 9813, "achel": 9814, "\u0120dating": 9815, "\u0120Eth": 9816, "\u0120spectrum": 9817, "\u0120Metro": 9818, "ateral": 9819, "\u0120Station": 9820, "\u0120Bal": 9821, "\u0120presentation": 9822, "\u0120lux": 9823, "gered": 9824, "arts": 9825, "\u0120bottle": 9826, "\u0120tap": 9827, "riors": 9828, "\u0120vig": 9829, "\u0120fundra": 9830, "\u0120enhance": 9831, "assy": 9832, "\u0120Sean": 9833, "\u0120therapy": 9834, "\u0120Wales": 9835, "\u0120Exper": 9836, "\u0120perceived": 9837, "market": 9838, "\u0120Tok": 9839, "\u0120dominant": 9840, "Def": 9841, "math": 9842, "\u0120backing": 9843, "\u0120Festival": 9844, "\u0120underlying": 9845, "\u0120defending": 9846, "\u0120Through": 9847, "\u0120racing": 9848, "\u0120discussing": 9849, "\u0120burden": 9850, "\u0120expanding": 9851, "\u0120muscle": 9852, "\u0120stops": 9853, "uz": 9854, "\u0120beings": 9855, "\u0120Marx": 9856, "\u0120Equ": 9857, "\u0120transaction": 9858, "\u0120Uber": 9859, "\u012099": 9860, "Cal": 9861, "\u0120recruit": 9862, "itudes": 9863, "acher": 9864, "\u0120Gary": 9865, "\u0120mood": 9866, "\u0120picking": 9867, "81": 9868, "lando": 9869, "ylum": 9870, "player": 9871, "\u0120managers": 9872, "orable": 9873, "\u0120gathering": 9874, "\u0120hopefully": 9875, "angle": 9876, "\u0120Son": 9877, "alysis": 9878, "\u0120Video": 9879, "section": 9880, "\u0120crus": 9881, "\u0120Libya": 9882, "\u0120impression": 9883, "\u0120hip": 9884, "olar": 9885, "\u00c3\u00a2": 9886, "\u0120scrut": 9887, "\u0120roy": 9888, "\u0120Tai": 9889, "igenous": 9890, "\u0120institution": 9891, "\u0120Batman": 9892, "}}": 9893, "\u0120stere": 9894, "\u0120procedures": 9895, "\u00c3\u00b1": 9896, "\u0120pocket": 9897, "\u0120creatures": 9898, "\u0120Boe": 9899, "\u0120compat": 9900, "\u0120arrival": 9901, "ptions": 9902, "sa": 9903, "watch": 9904, "\u0120eager": 9905, "\u0120pollution": 9906, "iture": 9907, "\u0120kitchen": 9908, "\u0120foods": 9909, "ocial": 9910, "\u0120recre": 9911, "\u0120surviv": 9912, "roph": 9913, "\u0120organic": 9914, "\u0120Pentagon": 9915, "\u0120Morgan": 9916, "\u0120shipping": 9917, "\u0120capitalism": 9918, "\u0120insult": 9919, "\u0120timing": 9920, "sub": 9921, "odox": 9922, "\u0120requirement": 9923, "\u0120unfair": 9924, "aders": 9925, "\u012056": 9926, "\u0120mice": 9927, "\u0120Assad": 9928, "Rem": 9929, "\u0120Represent": 9930, "\u0120Mess": 9931, "\u0120MLS": 9932, "bing": 9933, "atively": 9934, "\u0120Elizabeth": 9935, "\u0120Op": 9936, "\u0120diseases": 9937, "Mod": 9938, "\u0120industries": 9939, "\u0120Oakland": 9940, "dy": 9941, "\u0120bowl": 9942, "oln": 9943, "\u0120Murray": 9944, "\u0120Creat": 9945, "\u0120sed": 9946, "\u0120helicop": 9947, "\u0120divor": 9948, "agger": 9949, "\u0120beach": 9950, "\u0120punishment": 9951, "abet": 9952, "\u0120shell": 9953, "***": 9954, "\u0120fled": 9955, "\u0120hospitals": 9956, "missions": 9957, "\u0120tons": 9958, "AF": 9959, "\u0120Kick": 9960, "\u0120seed": 9961, "ogy": 9962, "\u0120Comey": 9963, "opyright": 9964, "\u0120statist": 9965, "\u0120engineers": 9966, "\u0120obsc": 9967, "\u0120hire": 9968, "SC": 9969, "\u0120module": 9970, "AY": 9971, "amous": 9972, "\u0120coaching": 9973, "oca": 9974, "\u0120answered": 9975, "rac": 9976, "Reg": 9977, "TR": 9978, "\u0120graphics": 9979, "\u0120regulatory": 9980, "\u0120sovere": 9981, "\u0120stance": 9982, "alties": 9983, "\u0120bow": 9984, "\u0120Keep": 9985, "Click": 9986, "\u0120explaining": 9987, "\u0120rhetoric": 9988, "\u0120beating": 9989, "\u0120Friend": 9990, "\u0120tut": 9991, "\u0120Email": 9992, "rior": 9993, "\u0120Yeah": 9994, "emic": 9995, "\u0120acknowledge": 9996, "\u0120Michel": 9997, "\u0120principal": 9998, "\u0120Mit": 9999, "\u0120pulling": 10000, "erves": 10001, "\u0120signature": 10002, "brid": 10003, "olving": 10004, "\u0120convince": 10005, "\u0120Roll": 10006, "\u0120variable": 10007, "cosystem": 10008, "\u0120pill": 10009, "\u0120searching": 10010, "\u0120Ox": 10011, "\u0120dies": 10012, "\u0120overcome": 10013, "\u0120preferred": 10014, "duction": 10015, "\u0120sixth": 10016, "\u0120adviser": 10017, "\u0120Tennessee": 10018, "\u0120trends": 10019, "\u0120!": 10020, "\u0120Russell": 10021, "\u0120(\"": 10022, "\u0120Thompson": 10023, "Ge": 10024, "\u0120merch": 10025, "\u0120rebels": 10026, "\u0120interaction": 10027, "\u0120periods": 10028, "\u0120Yan": 10029, "\u0120psychological": 10030, "Mich": 10031, "\u0120Sure": 10032, "\u0120Using": 10033, "\u0120economics": 10034, "\u0120Charlie": 10035, "\u0120Bi": 10036, "\u0120outlets": 10037, "\u0120Gil": 10038, "\u0120Intel": 10039, "\u0120signals": 10040, "pg": 10041, "\u0120echo": 10042, "\u0120Executive": 10043, "\u0120Kentucky": 10044, "\u0120tempor": 10045, "\u0120billions": 10046, "\u0120lineup": 10047, "\u0120math": 10048, "2013": 10049, "\u01201991": 10050, "\u0120setup": 10051, "\u0120rend": 10052, "Finally": 10053, "netic": 10054, "mic": 10055, "\u0120eggs": 10056, "\u0120segment": 10057, "\u0120arr": 10058, "\u0120badly": 10059, "kee": 10060, "\u0120Li": 10061, "ui": 10062, "\u0120sentenced": 10063, "\u0120everyday": 10064, "\u0120Dragon": 10065, "\u0120commander": 10066, "\u0120Holl": 10067, "\u0120AN": 10068, "\u0120loves": 10069, "unicipal": 10070, "ds": 10071, "\u0120genes": 10072, "NBC": 10073, "\u0120bold": 10074, "\u0120requiring": 10075, "\u0120bullet": 10076, "\u0120invasion": 10077, "will": 10078, "Comm": 10079, "\u0120partly": 10080, "\u0120escal": 10081, "\u0120instant": 10082, "\u0120gig": 10083, "\u0120Jean": 10084, "check": 10085, "\u0120arts": 10086, "\u0120gene": 10087, "\u0120removal": 10088, "\u0120undert": 10089, "\u0120upload": 10090, "liest": 10091, "\u0120Hart": 10092, "\u0120topics": 10093, "\u0120Iron": 10094, "enezuel": 10095, "\u0120inquiry": 10096, "\u0120amendment": 10097, "\u0120weakness": 10098, "\u0120Rather": 10099, "news": 10100, "\u0120concepts": 10101, "\u0120Ze": 10102, "\u0120McK": 10103, "has": 10104, "PL": 10105, "\u0120shoes": 10106, "arted": 10107, "\u0120Sound": 10108, "\u0120fabric": 10109, "izza": 10110, "grade": 10111, "\u0120Delhi": 10112, "Earlier": 10113, "tsburgh": 10114, "\u0120frequent": 10115, "\u0120sections": 10116, "\u0120occurs": 10117, "oli": 10118, "\u0120migrants": 10119, "\u0120compensation": 10120, "\u0120engineer": 10121, "eness": 10122, "\u0120lad": 10123, "\u0120Finally": 10124, "\u0120fo": 10125, "\u0120attractive": 10126, "\u0120Box": 10127, "\u0120unve": 10128, "instein": 10129, "\u0120).": 10130, "\u0120citing": 10131, "\u0120tweets": 10132, "\u0120utility": 10133, "arency": 10134, "cor": 10135, "\u0120posting": 10136, "\u0120ridiculous": 10137, "\u0120blockchain": 10138, "\u0120cler": 10139, "\u0120Clark": 10140, "\u0120speaker": 10141, "\u00e2\u0136\u0122": 10142, "\u0120diam": 10143, "\u00d8\u00a7": 10144, "\u0120corrupt": 10145, "\u0120talented": 10146, "\u0120lect": 10147, "\u0120collaps": 10148, "\u0120mask": 10149, "\u00e2\u0122\u0132": 10150, "necess": 10151, "screen": 10152, "\u0120notable": 10153, "\u0120Therefore": 10154, "\u0120elder": 10155, "\u0120genre": 10156, "\u0120deadline": 10157, "\u0120rolling": 10158, "\u0120carries": 10159, "\u0120BM": 10160, "gus": 10161, "Top": 10162, "\u0120Final": 10163, "via": 10164, "\u0120ET": 10165, "ental": 10166, "\u0120approaches": 10167, "\u0120eliminate": 10168, "\u0120Priv": 10169, "\u0120analysts": 10170, "\u0120sits": 10171, "\u0120cens": 10172, "State": 10173, "\u0120instances": 10174, "\u0120Simon": 10175, "\u0120publishing": 10176, "\u0120unprecedented": 10177, "\u0120colour": 10178, "\u0120Ve": 10179, "\u0120roots": 10180, "\u0120Phoenix": 10181, "VP": 10182, "\u0120cock": 10183, "\u0120bene": 10184, "\u0120Psych": 10185, "\u0120toxic": 10186, "\u0120collaboration": 10187, "\u0120arc": 10188, "\u0120inequality": 10189, "\u0120neighbors": 10190, "\u0120insight": 10191, "\u0120dramatically": 10192, "\u0120Harper": 10193, "\u0120homosexual": 10194, "\u0120prize": 10195, "\u0120towns": 10196, "\u0120extraordinary": 10197, "\u0120perception": 10198, "\u0120Gordon": 10199, "\u0120Whether": 10200, "\u0120Phill": 10201, "\u0120parad": 10202, "arget": 10203, "\u0120gest": 10204, "\u0120maintenance": 10205, "owski": 10206, "rowing": 10207, "\u0120Gro": 10208, "\u0120GO": 10209, "\u0120cheaper": 10210, "isdom": 10211, "\u0120associate": 10212, "\u0120coup": 10213, "Mark": 10214, "\u0120Event": 10215, "\u0120sheet": 10216, "\u0120Bow": 10217, "\u0120Below": 10218, "\u0120Sav": 10219, "\u0120Captain": 10220, "pack": 10221, "\u0120cognitive": 10222, "\u0120encouraging": 10223, "\u0120dreams": 10224, "\u0120Pers": 10225, "\u0120seized": 10226, "\u0120interviewed": 10227, "\u0120deployed": 10228, "\u0120violations": 10229, "\u0120camps": 10230, "\u0120comics": 10231, "\u0120constitu": 10232, "\u0120Reagan": 10233, "\u0120reserved": 10234, "\u0120buck": 10235, "\u0120employers": 10236, "\u0120aims": 10237, "atus": 10238, "\u0120functional": 10239, "\u0120mystery": 10240, "\u0120displayed": 10241, "Paul": 10242, "iban": 10243, "\u0120span": 10244, "\u0120loop": 10245, "\u0120delight": 10246, "apore": 10247, "cre": 10248, "AB": 10249, "\u0120traged": 10250, "\u0120Economic": 10251, "ixture": 10252, "\u0120Sa": 10253, "\u012057": 10254, "ricane": 10255, "\u0120glad": 10256, "\u0120occasionally": 10257, "\u0120vend": 10258, "\u0120export": 10259, "TON": 10260, "\u0120birthday": 10261, "\u0120heroes": 10262, "\u0120fatal": 10263, "estyle": 10264, "oga": 10265, "\u0120correctly": 10266, "\u0120Stew": 10267, "\u0120prompted": 10268, "wa": 10269, "\u0120stamp": 10270, "\u0120Cole": 10271, "elle": 10272, "\u0120contemporary": 10273, "\u0120Access": 10274, "\u0120Jenn": 10275, "\u0120prospects": 10276, "oting": 10277, "endar": 10278, "\u0120irre": 10279, "vi": 10280, "\u0120recommendations": 10281, "mir": 10282, "\u0120diplomatic": 10283, "throp": 10284, "\u0120pa": 10285, "ighth": 10286, "\u0120bell": 10287, "\u0120parallel": 10288, "\u0120exclud": 10289, "eling": 10290, "\u0120constitution": 10291, "onz": 10292, "\u0120disappointed": 10293, "\u0120manufacturers": 10294, "\u0120adequ": 10295, "\u0120intr": 10296, "\u0120Staff": 10297, "\u0120moderate": 10298, "\u0120Ever": 10299, "\u0120Dog": 10300, "\u0120ecosystem": 10301, "\u0120accompan": 10302, "Time": 10303, "\u0120demanded": 10304, "\u012085": 10305, "\u0120GDP": 10306, "\u0120Photos": 10307, "\u0120nose": 10308, "\u0120Montreal": 10309, "\u0120Dick": 10310, "ailable": 10311, "\u0120interpre": 10312, "\u0120pleased": 10313, "2017": 10314, "\u0120labour": 10315, "\u0120lifetime": 10316, "\u0120Brooklyn": 10317, "\u0120Tax": 10318, "\u0120Est": 10319, "\u0120Reserve": 10320, "rock": 10321, "\u0120communicate": 10322, "\u0120fights": 10323, "\u0120modified": 10324, "\u0120drunk": 10325, "\u0120Ocean": 10326, "\u0120sessions": 10327, "\u0120wedding": 10328, "\u0120knock": 10329, "\u0120explosion": 10330, "\u0120Library": 10331, "\u0120biological": 10332, "\u0120landed": 10333, "\u0120repair": 10334, "\u0120EPA": 10335, "\u012058": 10336, "\u0120Authority": 10337, "\u0120subsc": 10338, "\u0120representation": 10339, "\u0120Given": 10340, "\u0120Bol": 10341, "\u0120artificial": 10342, "250": 10343, "leans": 10344, "fit": 10345, "Fi": 10346, "\u0120relation": 10347, "\u0120owns": 10348, "\u0120Khan": 10349, "ixon": 10350, "\u0120Antonio": 10351, "\u0120Digital": 10352, "\u0120lift": 10353, "agen": 10354, "\u0120designer": 10355, "rot": 10356, "\u0120recon": 10357, "Thanks": 10358, "\u0120emp": 10359, "\u0120consciousness": 10360, "\u0120kicked": 10361, "\u0120Order": 10362, "\u0120defender": 10363, "\u0120hanging": 10364, "\u0120lessons": 10365, "hist": 10366, "\u0120imposed": 10367, "\u0120guests": 10368, "\u0120adopt": 10369, "\u0120anonymous": 10370, "150": 10371, "\u0120sli": 10372, "\u0120concerning": 10373, "wind": 10374, "\u0120pregnant": 10375, "\u0120Five": 10376, "incoln": 10377, "\u0120Bul": 10378, "\u0120underground": 10379, "acre": 10380, "\u0120maintaining": 10381, "\u0120asset": 10382, "\u0120Alan": 10383, "\u0120punch": 10384, "\u0120Rome": 10385, "ols": 10386, "bourne": 10387, "\u0120shirt": 10388, "\u0120ingredients": 10389, "Update": 10390, "\u0120cheese": 10391, "wed": 10392, "\u0120intellig": 10393, "isition": 10394, "\u0120Channel": 10395, "\u0120Convention": 10396, "\u0120podcast": 10397, "\u0120interior": 10398, "graph": 10399, "\":\"": 10400, "\u0120emotions": 10401, "ching": 10402, "human": 10403, "\u0120abstract": 10404, "\u0120Argent": 10405, "\u0120couples": 10406, "\u0120lesson": 10407, "\u0120creature": 10408, "\u0120resolve": 10409, "\u0120shocked": 10410, "\u0120oppose": 10411, "Whe": 10412, "\u0120summit": 10413, "\u0120performances": 10414, "\u0120SU": 10415, "\u0120volunteers": 10416, "\u0120Burn": 10417, "Dis": 10418, "\u0120soldier": 10419, "\u00d1\u0125": 10420, "some": 10421, "\u0120stimul": 10422, "\u0120logo": 10423, "\u00e0\u00a4": 10424, "appropri": 10425, "istant": 10426, "\u0120terr": 10427, "\u0120vocal": 10428, "\u0120accum": 10429, "\u0120girlfriend": 10430, "\u0120Protection": 10431, "ben": 10432, "\u0120Dur": 10433, "ulty": 10434, "SE": 10435, "\u0120jumped": 10436, "\u0120annoy": 10437, "\u0120Page": 10438, "\u0120jihad": 10439, "\u0120mile": 10440, "\u0120nurs": 10441, "\u0120Lear": 10442, "user": 10443, "\u0120militants": 10444, "acles": 10445, "\u0120guid": 10446, "\u0120Fant": 10447, "\u0120Missouri": 10448, "\u0120professionals": 10449, "Gener": 10450, "(\"": 10451, "\u0120Anna": 10452, "ikh": 10453, "Instead": 10454, "\u0120butter": 10455, "ials": 10456, "\u0120swit": 10457, "\u0120refers": 10458, "\u0120desktop": 10459, "dr": 10460, "\u0120traveling": 10461, "\u0120libr": 10462, "gets": 10463, "\u0120isolated": 10464, "\u0120forum": 10465, "\u0120advocate": 10466, "\u0120existed": 10467, "\u0120Lim": 10468, "\u0120opposing": 10469, "\u0120Coal": 10470, "gate": 10471, "\u0120recalled": 10472, "\u00e2\u0122\u00a6.": 10473, "Next": 10474, "Station": 10475, "\u0120Case": 10476, "\u0120Han": 10477, "Israel": 10478, "\u0120600": 10479, "\u0120integration": 10480, "\u0120describing": 10481, "\u0120boxes": 10482, "\u0120JavaScript": 10483, "\u0120Orleans": 10484, "early": 10485, "\u0120stro": 10486, "CD": 10487, "\u0120Mail": 10488, "\u0120minimal": 10489, "\u0120Hal": 10490, "tainment": 10491, "\u0120confused": 10492, "\u0120Custom": 10493, "\u0120SD": 10494, "umph": 10495, "\u0120peaceful": 10496, "\u0120inherent": 10497, "abe": 10498, "odge": 10499, "cal": 10500, "\u0120surrounded": 10501, "\u0120vert": 10502, "owned": 10503, "\u0120Capitol": 10504, "hattan": 10505, "\u0120Hand": 10506, "commun": 10507, "\u0120holes": 10508, "\u0120meal": 10509, "\u01201989": 10510, "\u0120integrity": 10511, "\u0120Know": 10512, "\u0120Player": 10513, "\u0120pm": 10514, "\u0120Barb": 10515, "\u0120inspiration": 10516, "\u0120configuration": 10517, "\u0120Rs": 10518, "\u0120sne": 10519, "\u0120Trust": 10520, "\u0120Ban": 10521,
[...]
